<pad>	0
<unk>	0
<s>	0
</s>	0
<sep>	0
<cls>	0
<mask>	0
<sanskrit>	0
</sanskrit>	0
<hindi>	0
</hindi>	0
<english>	0
</english>	0
<vedic>	0
</vedic>	0
<mantra>	0
</mantra>	0
<sloka>	0
</sloka>	0
<dharma>	0
<karma>	0
<ahimsa>	0
<satya>	0
<moksha>	0
<brahman>	0
<atman>	0
<yoga>	0
<verse>	0
</verse>	0
<commentary>	0
</commentary>	0
<translation>	0
</translation>	0
<rigveda>	0
<yajurveda>	0
<samaveda>	0
<atharvaveda>	0
<upanishad>	0
<brahmana>	0
▁	-2.73308
,	-3.35683
.	-3.5912
▁the	-4.0252
▁॥	-4.31592
:	-4.43807
ं	-4.60162
▁।	-4.64365
▁of	-4.79071
ः	-4.88254
▁Divyansh	-4.9865
▁hai	-5.00146
▁Urvashi	-5.02458
।	-5.04277
▁and	-5.07633
▁to	-5.16547
▁is	-5.26137
'	-5.33726
!	-5.34571
s	-5.41612
-	-5.42236
?	-5.46841
▁(	-5.50916
▁a	-5.52288
े	-5.58274
▁in	-5.65109
▁that	-5.72935
▁.	-5.73337
▁I	-5.75198
▁न	-5.86016
▁स	-5.86907
)	-5.94134
ो	-5.94368
▁it	-5.9493
ा	-5.96153
▁bhi	-6.06596
e	-6.0694
▁च	-6.08031
▁'	-6.13425
म्	-6.13741
▁aur	-6.14483
▁as	-6.14923
▁you	-6.15305
▁है	-6.15613
▁with	-6.18995
;	-6.19833
▁for	-6.20464
▁के	-6.2502
ि	-6.26485
▁से	-6.2976
▁he	-6.30115
▁ho	-6.32057
▁be	-6.32155
ी	-6.34256
▁में	-6.36313
▁की	-6.36379
▁on	-6.37801
▁mein	-6.38513
॥	-6.38968
▁this	-6.40391
▁by	-6.43188
▁ke	-6.45124
▁ki	-6.45683
▁are	-6.48059
▁toh	-6.48253
▁इति	-6.50782
▁The	-6.5236
................	-6.53177
a	-6.53982
▁not	-6.56206
▁mujhe	-6.58498
\	-6.58557
▁“	-6.67923
▁को	-6.71032
i	-6.73786
▁का	-6.74321
▁we	-6.75466
▁from	-6.7595
▁Haan	-6.76195
t	-6.78101
▁saath	-6.80097
▁नहीं	-6.80665
ति	-6.8568
▁which	-6.8672
▁ka	-6.87069
▁और	-6.88797
▁so	-6.92092
▁have	-6.946
▁|	-6.9542
 	-6.95621
ing	-6.95717
▁ek	-6.97796
▁bahut	-7.00151
▁all	-7.0073
▁अ	-7.00743
▁It	-7.00893
म	-7.01327
▁one	-7.01632
▁पर	-7.02717
स्य	-7.0461
▁se	-7.06577
▁भवति	-7.07828
▁कि	-7.08121
—	-7.08537
▁हो	-7.12435
▁ko	-7.13413
d	-7.13638
▁१	-7.139
▁can	-7.14916
न	-7.14957
्	-7.15161
ों	-7.16155
▁liye	-7.1775
▁our	-7.18314
▁his	-7.18314
▁me	-7.18936
▁kar	-7.19405
▁mere	-7.21206
▁or	-7.22162
ते	-7.22495
▁Brahman	-7.23339
▁him	-7.23586
▁they	-7.23901
▁hum	-7.25283
▁वा	-7.25528
▁p	-7.2566
▁but	-7.26339
▁at	-7.26701
m	-7.29179
the	-7.29725
▁like	-7.30332
▁हैं	-7.3107
ने	-7.31073
▁३	-7.31097
▁य	-7.3142
र	-7.31806
▁was	-7.31886
▁२	-7.31988
▁woh	-7.32541
▁an	-7.33631
▁tha	-7.33786
▁And	-7.35625
’	-7.35654
▁वह	-7.37277
▁there	-7.37487
▁तो	-7.38129
▁has	-7.40167
▁kuch	-7.40261
त	-7.40575
ेन	-7.41828
▁ही	-7.41956
ता	-7.42424
▁वे	-7.42552
▁who	-7.43476
स	-7.44168
▁एक	-7.44252
▁its	-7.44258
स्	-7.45378
▁time	-7.45813
या	-7.45871
▁hi	-7.46477
▁nahi	-7.48514
▁एव	-7.48525
▁hain	-7.49196
व	-7.49383
▁Tum	-7.49909
▁ने	-7.50352
▁my	-7.5059
▁"	-7.51193
▁being	-7.51926
▁love	-7.51943
▁other	-7.52016
▁Aur	-7.52166
▁kya	-7.53407
▁about	-7.54298
▁world	-7.54824
▁ह	-7.55314
▁भी	-7.55871
य	-7.57524
▁special	-7.57528
▁हि	-7.58089
▁सर्व	-7.59479
▁no	-7.61285
▁what	-7.61477
▁pe	-7.62429
▁also	-7.6359
▁Self	-7.63624
▁Hey	-7.63741
▁only	-7.63921
▁their	-7.63992
▁That	-7.64085
),	-7.64159
▁ब्रह्म	-7.64514
श्च	-7.6477
▁यो	-7.65963
▁would	-7.66327
▁४	-7.66439
▁hoon	-7.66794
▁आ	-7.66828
▁tum	-7.67028
▁त	-7.68756
क	-7.69203
▁कर	-7.69569
▁raha	-7.69854
▁into	-7.70271
ेति	-7.71027
▁them	-7.71201
▁then	-7.71355
ed	-7.71798
▁these	-7.72914
▁तु	-7.73182
▁tu	-7.73269
▁baat	-7.73555
त्	-7.73776
▁such	-7.73972
्य	-7.74372
▁अथ	-7.74727
▁But	-7.74766
मिति	-7.74778
▁na	-7.75077
▁karte	-7.75952
_	-7.76009
▁You	-7.76775
▁way	-7.76815
▁romantic	-7.77341
▁same	-7.779
▁us	-7.78715
▁those	-7.78909
--	-7.79837
च	-7.80217
▁main	-7.81163
▁more	-7.81443
▁He	-7.81962
▁thus	-7.82277
▁ते	-7.82475
▁knowledge	-7.83208
re	-7.83329
▁your	-7.83944
▁make	-7.83947
ना	-7.84064
▁yeh	-7.85478
▁do	-7.85896
c	-7.86704
ाः	-7.8713
ाय	-7.8735
▁pasand	-7.87629
▁५	-7.87779
▁two	-7.88335
▁does	-7.88741
▁pyaar	-7.88931
▁यथा	-7.88931
▁together	-7.89383
कर	-7.89494
▁उसे	-7.89666
▁Mujh	-7.91269
▁karne	-7.91696
▁सा	-7.93046
▁karna	-7.93317
▁Next	-7.93538
▁when	-7.93698
▁life	-7.93975
▁will	-7.94046
ु	-7.94137
▁===	-7.94248
ेषु	-7.95102
▁Oh	-7.95644
▁means	-7.9572
▁यह	-7.95721
▁soul	-7.97105
।"	-7.97276
▁been	-7.97756
▁just	-7.97905
▁Absolutely	-7.97912
▁था	-7.98605
texts	-8.0021
द	-8.00224
▁par	-8.00519
▁dil	-8.01393
सी	-8.01427
▁लिए	-8.01609
▁up	-8.0203
ानि	-8.02225
▁know	-8.02744
.--	-8.03328
▁क	-8.03505
▁प्र	-8.03778
▁were	-8.03811
▁तथा	-8.04585
▁ॐ	-8.05217
I	-8.05473
▁Agni	-8.06154
▁too	-8.06265
▁see	-8.07793
▁food	-8.07913
▁We	-8.08073
सु	-8.08286
▁body	-8.08469
▁feel	-8.08586
▁fire	-8.08631
ौ	-8.08876
▁rahi	-8.09197
▁Main	-8.09534
k	-8.09687
▁may	-8.09771
!'	-8.10048
▁७	-8.10596
▁६	-8.1083
▁lagta	-8.11117
▁if	-8.11141
▁kabhi	-8.1186
▁how	-8.11986
▁For	-8.12571
▁II	-8.12603
▁here	-8.12623
▁S	-8.12696
▁gods	-8.13264
▁sacrifice	-8.14263
▁sakte	-8.14354
▁Woh	-8.14453
▁thi	-8.15041
▁या	-8.15331
▁bilkul	-8.15672
▁जो	-8.15703
▁वेद	-8.16391
प	-8.17244
▁Lekin	-8.18011
▁होवाच	-8.1807
▁chahiye	-8.18099
▁nature	-8.18266
▁+	-8.18418
ly	-8.18497
▁मैं	-8.18599
▁text	-8.18613
▁out	-8.18738
▁now	-8.1902
▁different	-8.19108
▁through	-8.19608
▁एवं	-8.19674
▁amazing	-8.19869
▁must	-8.20128
...	-8.20145
▁gaya	-8.20215
?"	-8.20346
▁व	-8.20371
▁क्या	-8.20394
▁रही	-8.20786
h	-8.20852
ve	-8.21533
▁yaar	-8.21889
▁This	-8.22212
▁baar	-8.22548
▁In	-8.22958
▁own	-8.23069
▁तस्य	-8.23238
,'	-8.23241
ां	-8.23451
▁said	-8.23461
on	-8.23682
▁C	-8.24206
▁A	-8.24433
The	-8.24461
▁hamesha	-8.25094
ख	-8.25237
▁मे	-8.25719
▁ख	-8.26056
▁great	-8.26075
▁first	-8.26213
▁yaad	-8.26323
).	-8.26425
▁moment	-8.26593
▁some	-8.26628
तः	-8.27584
▁हुए	-8.2762
▁Up	-8.28546
सि	-8.28576
ल	-8.28624
▁अपने	-8.28689
▁even	-8.28733
ती	-8.2947
▁उ	-8.30397
▁उसने	-8.30441
▁नमः	-8.30483
▁highest	-8.30799
▁any	-8.30924
▁should	-8.30967
▁kiya	-8.31021
▁account	-8.31154
▁say	-8.315
▁नाम	-8.31512
in	-8.31885
▁sab	-8.31913
ै	-8.3254
▁कोई	-8.32592
▁itself	-8.32625
न्	-8.33058
▁खण्ड	-8.33146
▁indeed	-8.3343
▁therefore	-8.33552
▁apne	-8.33585
▁man	-8.33605
मा	-8.3377
▁meri	-8.34091
▁had	-8.342
▁always	-8.34613
▁रहा	-8.34681
▁dono	-8.34838
▁एष	-8.3492
▁because	-8.3503
▁Indian	-8.3514
▁hota	-8.35212
सा	-8.35887
▁घर	-8.35919
▁Vedanta	-8.35991
▁चा	-8.36019
▁place	-8.36023
f	-8.36514
▁rahe	-8.36525
▁उसके	-8.36764
▁dance	-8.3722
ानां	-8.37287
▁tumhare	-8.37407
▁&	-8.37447
▁non	-8.37533
▁Haha	-8.37604
▁koi	-8.377
▁part	-8.37802
▁something	-8.37821
▁hu	-8.37942
T	-8.38255
▁wait	-8.38269
▁मां	-8.38505
▁आप	-8.38583
▁beautiful	-8.38711
▁सर्वे	-8.3895
:1	-8.39159
com	-8.39197
▁humar	-8.39426
▁right	-8.40363
y	-8.40419
▁नमो	-8.41046
▁III	-8.41116
▁1,	-8.41192
n	-8.419
▁इ	-8.4298
▁journey	-8.4298
▁मा	-8.43381
ह	-8.43431
▁काम	-8.43496
ग	-8.43829
▁down	-8.43878
▁har	-8.43943
▁Tumhare	-8.43992
▁3,	-8.44481
▁true	-8.44725
▁abhi	-8.44772
▁bohot	-8.44905
▁=	-8.4494
▁Par	-8.44979
ये	-8.4507
SBE	-8.45193
▁They	-8.45201
तो	-8.45226
G	-8.45412
▁उसकी	-8.45422
▁कुछ	-8.45516
▁ब	-8.45917
▁म	-8.46057
.'	-8.46671
▁her	-8.46677
▁favorite	-8.46722
▁प्राण	-8.4677
▁passage	-8.47009
▁सह	-8.47318
U	-8.47381
ेण	-8.47389
न्ति	-8.47508
▁where	-8.47563
▁गया	-8.47917
पि	-8.48041
▁थी	-8.48366
ll	-8.49102
r	-8.49585
▁than	-8.49593
▁इस	-8.49594
▁after	-8.49631
▁शान्तिः	-8.49673
▁both	-8.49842
▁tujhe	-8.49966
▁2,	-8.5015
थ	-8.50226
▁each	-8.50389
▁सं	-8.50457
data	-8.50727
▁Kya	-8.50874
▁किया	-8.50974
ne	-8.51212
▁made	-8.51657
▁स्व	-8.52005
▁form	-8.52126
▁tere	-8.5216
▁Soma	-8.52261
ेव	-8.52622
▁sounds	-8.52634
▁तत्र	-8.52708
▁experience	-8.53283
र्	-8.53298
▁Let	-8.534
top	-8.53435
▁चे	-8.53646
▁thereby	-8.54458
▁new	-8.54563
▁i	-8.54805
▁plan	-8.55068
se	-8.554
▁humari	-8.55563
▁makes	-8.55752
al	-8.55985
▁८	-8.56042
…	-8.56175
▁Sacred	-8.56411
▁९	-8.56448
▁यस्य	-8.57017
▁let	-8.57205
▁story	-8.57332
....	-8.5741
वा	-8.57953
▁things	-8.58518
▁Hinduism	-8.58722
▁tr	-8.58731
▁cannot	-8.5896
▁१०	-8.5897
▁really	-8.59067
▁mind	-8.59276
ँ	-8.59321
▁hoga	-8.59601
▁हुई	-8.59843
▁karti	-8.60165
▁रहे	-8.60218
▁pata	-8.60317
▁having	-8.60563
▁प	-8.6086
▁light	-8.60904
ण	-8.60932
▁भ	-8.60997
▁Texts	-8.61096
ज	-8.61137
नि	-8.6127
▁स्वयं	-8.61577
Des	-8.61667
▁Index	-8.61798
▁words	-8.61822
▁रूप	-8.61967
xt	-8.62269
▁sahi	-8.62277
▁cause	-8.62425
▁din	-8.62544
▁water	-8.62594
▁ये	-8.62841
vedic	-8.63169
sers	-8.63313
Neo	-8.63413
▁परं	-8.63414
▁कहा	-8.63497
Aparan	-8.63514
rajiv	-8.63581
▁भव	-8.63715
▁यः	-8.63814
▁राजा	-8.63884
▁Previous	-8.63926
से	-8.641
htm	-8.64412
स्तु	-8.64516
▁हुआ	-8.64599
▁again	-8.64657
sbe	-8.64773
▁Waise	-8.64903
▁ab	-8.6503
▁4,	-8.6506
▁earth	-8.65523
▁try	-8.65544
▁without	-8.65686
▁वि	-8.6579
▁individual	-8.65903
▁comm	-8.66096
▁दिया	-8.66263
▁case	-8.66439
▁Ek	-8.66652
नं	-8.66676
▁Hum	-8.66711
▁sacred	-8.66726
▁music	-8.66882
as	-8.67326
ित	-8.6767
▁sense	-8.68215
▁jab	-8.68499
त्र	-8.68623
▁अपनी	-8.68687
▁द	-8.68818
▁तत्	-8.68944
▁day	-8.69148
▁art	-8.69208
▁perfect	-8.70057
▁while	-8.70142
▁ban	-8.70329
▁Sach	-8.70422
▁idea	-8.70641
▁says	-8.70806
▁यदा	-8.71489
मेव	-8.71589
▁श	-8.71805
▁hand	-8.71991
▁khushi	-8.72309
▁karenge	-8.72627
ब	-8.72755
▁karke	-8.72788
▁think	-8.72899
▁पुरुष	-8.73117
▁date	-8.73164
▁tumhe	-8.73547
▁much	-8.73577
▁meaning	-8.74813
▁Now	-8.74974
।”	-8.74976
श	-8.74995
▁उस	-8.75035
रा	-8.75057
▁दे	-8.75887
▁उनके	-8.75891
▁हम	-8.75918
.”	-8.76083
▁IV	-8.76123
▁१३	-8.76175
▁between	-8.76296
▁over	-8.7633
▁whole	-8.76393
o	-8.7642
▁सदा	-8.76725
▁within	-8.76895
▁sun	-8.76999
▁gayi	-8.77011
▁reason	-8.77117
or	-8.77346
▁Pâda	-8.77423
▁तेन	-8.77705
▁उन्हें	-8.77714
▁why	-8.77807
of	-8.7787
▁tak	-8.78105
▁गई	-8.78513
▁hoti	-8.78528
▁Ab	-8.78567
▁ना	-8.78758
▁hence	-8.7888
▁मन	-8.78962
an	-8.79272
▁इव	-8.79313
ni	-8.7933
न्न	-8.79587
▁मैंने	-8.79943
▁Well	-8.80028
na	-8.80097
▁lag	-8.80532
▁What	-8.80742
▁moments	-8.80755
▁११	-8.80959
वि	-8.81477
यो	-8.81833
▁तद	-8.81887
▁word	-8.81963
भ	-8.82025
▁three	-8.82148
स्त	-8.82931
▁करने	-8.83025
▁could	-8.83456
▁स्वाहा	-8.83494
▁alag	-8.83702
▁create	-8.83757
▁go	-8.8382
▁power	-8.84132
▁everything	-8.84247
▁Tumhari	-8.84326
▁maine	-8.84481
नी	-8.84486
ात्	-8.84685
▁ne	-8.84886
▁heart	-8.85022
▁१२	-8.8504
का	-8.85402
to	-8.85434
he	-8.85575
ई	-8.85712
▁interesting	-8.8572
▁future	-8.85783
?”	-8.86123
:2	-8.86163
▁George	-8.86388
▁Tumhe	-8.86445
▁sutra	-8.86736
▁sabse	-8.86859
▁शरीर	-8.8686
यं	-8.87343
▁Thibaut	-8.87436
▁तक	-8.87923
▁air	-8.87949
▁India	-8.88019
▁existence	-8.88035
▁Indra	-8.88077
);	-8.88225
ाणि	-8.88333
▁Tu	-8.88339
▁मनो	-8.8861
▁अब	-8.88647
▁जा	-8.88676
द्	-8.88721
▁बात	-8.88748
▁sach	-8.89273
ड	-8.89547
▁share	-8.8957
▁हे	-8.89784
▁Sutras	-8.90272
▁ज	-8.90355
▁called	-8.9037
▁explore	-8.90384
▁किं	-8.90408
▁become	-8.90482
/	-8.90546
▁take	-8.90734
▁view	-8.9079
▁देव	-8.90994
▁good	-8.91124
▁देवता	-8.91286
▁होता	-8.9149
▁sweet	-8.91508
▁bas	-8.91522
▁पञ्च	-8.91743
▁thou	-8.92028
▁१४	-8.92203
▁महा	-8.92293
यः	-8.92355
ात्मा	-8.92651
,--	-8.9271
ू	-8.92866
▁phir	-8.92937
तु	-8.92985
...............	-8.93016
▁ye	-8.93323
▁थे	-8.93338
▁karta	-8.93382
▁मेरे	-8.93388
▁zindagi	-8.93402
▁If	-8.93752
▁important	-8.93776
▁तदा	-8.93875
▁प्रति	-8.94066
▁offering	-8.9422
▁ज्ञान	-8.94547
▁Yeh	-8.94554
▁फिर	-8.94582
▁log	-8.94631
▁आत्मा	-8.94714
▁ले	-8.94782
षु	-8.94912
▁side	-8.95014
▁takes	-8.95277
▁work	-8.95434
g	-8.95496
▁यत्र	-8.95536
▁itna	-8.95588
▁spend	-8.96123
ta	-8.96139
▁gaye	-8.96237
it	-8.964
▁तं	-8.96501
▁khush	-8.96683
▁Wow	-8.96814
▁पुनः	-8.9683
▁dusr	-8.96906
▁ya	-8.97056
▁kais	-8.97158
▁object	-8.97298
ओं	-8.97438
▁१७	-8.97539
▁हूं	-8.97544
ैः	-8.97549
▁hote	-8.97577
▁जब	-8.97902
▁kaise	-8.98218
▁tumhari	-8.98368
▁person	-8.98559
▁zaroor	-8.98564
ीति	-8.98572
▁१६	-8.98606
▁यदि	-8.98791
▁every	-8.98925
er	-8.99074
▁aa	-8.99148
▁himself	-8.99159
▁come	-8.99272
्या	-8.99316
▁well	-8.99367
▁सकता	-8.99556
,”	-8.99905
▁another	-8.99932
▁ततः	-9.00068
श्	-9.00159
▁truth	-9.00375
▁–	-9.00499
▁lekin	-9.00946
▁नो	-9.00947
▁works	-9.01114
▁best	-9.01166
▁२०	-9.01291
▁होगा	-9.01352
▁Lord	-9.01369
▁difference	-9.01404
▁१८	-9.01747
▁देवा	-9.01762
न्ते	-9.02128
▁ओर	-9.02485
ान्	-9.02548
▁१५	-9.02926
▁self	-9.03123
▁state	-9.0313
"	-9.03155
▁ग	-9.03244
▁tumse	-9.0326
मि	-9.03514
▁viz	-9.03645
▁Sûtra	-9.03706
te	-9.03751
ti	-9.03774
▁mera	-9.03832
▁Book	-9.03865
▁knows	-9.03878
▁Tujhe	-9.0391
▁kitn	-9.03999
He	-9.042
दा	-9.04406
▁she	-9.04416
▁नि	-9.04477
▁meditation	-9.04512
▁भवन्ति	-9.0457
▁street	-9.04705
▁jo	-9.05293
वे	-9.0549
▁Brâhmana	-9.05641
▁So	-9.05687
ष	-9.05708
▁ततो	-9.06275
▁theek	-9.06297
▁सब	-9.0635
▁humara	-9.06621
▁known	-9.06744
▁beings	-9.06811
▁क्यों	-9.07001
▁Satapatha	-9.07376
▁connection	-9.07595
▁विद्या	-9.07781
▁सु	-9.07934
▁memories	-9.08129
▁excited	-9.08129
ट	-9.0841
apni	-9.08457
▁बाबूजी	-9.08481
ए	-9.08514
▁agree	-9.08679
▁support	-9.08961
▁उनकी	-9.09155
▁sacrificial	-9.09277
▁kisi	-9.09367
▁before	-9.09377
▁Amazon	-9.09432
▁zyada	-9.09761
▁अध्या०	-9.09766
▁breath	-9.10271
▁speech	-9.10299
▁V	-9.10347
▁O	-9.10546
▁By	-9.1061
▁दो	-9.10684
▁forms	-9.10755
▁dinner	-9.10975
▁end	-9.11006
▁Brahmana	-9.11153
त्वा	-9.11236
▁लोक	-9.11269
”	-9.11289
▁maza	-9.11303
▁See	-9.11306
▁सत्य	-9.11416
▁र	-9.11457
at	-9.11474
▁[	-9.11489
इ	-9.1182
▁people	-9.11888
▁Pragâpati	-9.11905
▁यत्	-9.11941
and	-9.11963
▁मुझे	-9.11998
चि	-9.12026
ऽ	-9.12124
छ	-9.12126
▁योग	-9.12159
▁aaj	-9.12572
▁मम	-9.12665
▁trip	-9.12972
▁किस	-9.12984
▁आई	-9.13004
रिति	-9.13041
▁भवेत्	-9.13049
▁Tere	-9.13359
▁वायु	-9.13384
▁AI	-9.13414
▁As	-9.13505
ोऽ	-9.13512
▁सम	-9.13558
▁तुम	-9.13799
▁very	-9.13906
▁sakta	-9.1402
▁thought	-9.141
▁Thank	-9.14523
▁under	-9.14557
!"	-9.14784
▁Buy	-9.14824
तां	-9.14962
▁लगा	-9.15142
▁commentary	-9.15171
▁next	-9.15197
▁द्वितीय	-9.1524
॑	-9.15412
▁reality	-9.15523
▁भूत	-9.15741
▁उन्होंने	-9.15806
▁already	-9.15812
▁accha	-9.16336
री	-9.16658
▁latter	-9.16806
▁baad	-9.16811
▁vital	-9.16867
▁enjoy	-9.16898
ळ	-9.16908
▁येन	-9.17074
▁Tumne	-9.17147
▁चि	-9.17439
▁since	-9.17618
▁texts	-9.17741
▁year	-9.17896
▁kaha	-9.181
▁stories	-9.18109
▁did	-9.18357
तं	-9.18366
▁साथ	-9.18474
▁True	-9.18481
▁होने	-9.18514
▁लेकिन	-9.18569
▁मनः	-9.18762
▁thing	-9.19039
▁wahan	-9.19201
▁paas	-9.19211
को	-9.19304
स्थ	-9.19312
िति	-9.19351
▁feeling	-9.19394
ेः	-9.19425
्र	-9.19506
▁traditional	-9.19579
▁देह	-9.19808
▁जैसे	-9.19881
▁Unk	-9.19933
▁होती	-9.20232
▁अहं	-9.20478
▁qualities	-9.20768
भिः	-9.20774
▁effect	-9.20822
▁shuru	-9.20879
]	-9.20879
▁away	-9.20938
▁passages	-9.21173
▁soch	-9.21183
▁coffee	-9.21288
▁hamar	-9.2134
▁far	-9.2141
ियों	-9.21431
▁पहले	-9.21691
▁अपि	-9.21715
कः	-9.21757
रं	-9.2194
ोऽस्मि	-9.2201
त्व	-9.22092
▁yet	-9.22172
▁according	-9.22281
▁most	-9.22355
▁seq	-9.22384
▁train	-9.22686
घ	-9.22736
▁real	-9.22793
▁झ	-9.2284
▁many	-9.22865
▁When	-9.22969
▁performance	-9.23034
for	-9.23169
▁upon	-9.23264
▁जीव	-9.23278
▁long	-9.23291
▁forward	-9.23419
ादि	-9.23446
▁back	-9.2349
▁Thir	-9.235
▁either	-9.23553
▁certain	-9.23712
▁गए	-9.23767
▁ever	-9.23784
▁समय	-9.23893
▁दी	-9.23992
▁Hmm	-9.24188
▁baatein	-9.24394
▁mil	-9.24501
त्वं	-9.24713
मे	-9.24769
▁भर	-9.2481
यति	-9.24942
▁ध्यान	-9.2498
▁going	-9.25123
▁never	-9.25149
▁shopping	-9.2515
▁connected	-9.25161
▁becomes	-9.25193
st	-9.25258
▁स्वर	-9.25358
▁help	-9.25458
स्व	-9.25505
मिव	-9.25726
▁Wah	-9.25818
▁Adhyâya	-9.25919
रूपं	-9.25934
▁पूर्व	-9.25939
▁laga	-9.25967
▁प्रकाश	-9.2609
▁am	-9.26137
▁कृत्वा	-9.26183
▁movie	-9.26252
▁1	-9.26491
▁de	-9.26903
▁forth	-9.26949
▁once	-9.27106
▁परमं	-9.27318
▁understand	-9.27332
ेष	-9.27429
ind	-9.27455
▁last	-9.27544
अ	-9.27662
▁nothing	-9.2769
यां	-9.27821
▁जाता	-9.27848
▁above	-9.279
▁culture	-9.27954
▁seen	-9.27998
▁chal	-9.28016
▁परि	-9.28098
that	-9.28105
रो	-9.28443
▁kam	-9.28501
▁order	-9.28635
▁पवार	-9.28754
▁हाथ	-9.28899
▁छ	-9.29088
प्र	-9.29164
▁offers	-9.29182
▁उच्यते	-9.29204
▁All	-9.29238
▁beginning	-9.29273
के	-9.29689
▁उसका	-9.29756
▁merely	-9.30015
▁note	-9.30236
▁On	-9.3024
▁Bollywood	-9.30403
▁smile	-9.30592
न्त	-9.30601
▁एत	-9.30625
▁कर्म	-9.30679
▁suna	-9.30801
रे	-9.30853
ञ	-9.30874
▁ii	-9.30911
▁tujhse	-9.30944
▁sir	-9.3121
▁evil	-9.31378
▁places	-9.31662
यते	-9.31745
▁nor	-9.31916
▁taken	-9.31922
▁Chapter	-9.31968
▁worlds	-9.32063
▁use	-9.32488
▁don	-9.32725
Vâg	-9.32745
▁follows	-9.32845
▁sath	-9.32882
But	-9.33064
▁haan	-9.33139
▁विश्व	-9.33475
▁reply	-9.33554
जा	-9.33593
२	-9.33627
▁कैसे	-9.33691
मपि	-9.33724
▁हर	-9.33732
es	-9.33912
▁sky	-9.33915
०	-9.33941
▁करते	-9.33952
▁consciousness	-9.34048
▁question	-9.34085
▁ether	-9.3414
▁वो	-9.34209
▁definitely	-9.34259
िः	-9.34529
▁Aww	-9.34531
सं	-9.34788
▁Second	-9.34814
▁जिस	-9.34959
▁बह्म	-9.34984
▁भाव	-9.35019
▁hua	-9.35058
▁might	-9.35074
ध	-9.35278
▁tumhara	-9.35382
श्व	-9.35395
▁Humar	-9.35539
जी	-9.3566
ठ	-9.35742
▁आया	-9.359
▁विष	-9.35956
▁१९	-9.36086
▁kaafi	-9.36234
▁First	-9.36319
▁dekh	-9.36346
▁Thanks	-9.36356
▁point	-9.36726
▁humein	-9.36841
▁divine	-9.36847
▁२३	-9.37126
▁sakti	-9.3724
A	-9.37261
▁चेद	-9.37262
▁making	-9.37335
▁subject	-9.37399
▁hogi	-9.37419
▁college	-9.37673
▁आत्म	-9.37813
▁प्रश्न	-9.37975
▁Yes	-9.38001
रूप	-9.38058
▁night	-9.3813
▁तव	-9.38207
▁name	-9.38299
▁ए	-9.38391
▁इत्य	-9.38519
▁With	-9.38542
▁कृष्ण	-9.38629
▁tumne	-9.38658
▁1.	-9.3868
▁There	-9.38704
▁VI	-9.3873
▁Badarayana	-9.3884
ोऽपि	-9.38886
▁agar	-9.38891
▁कम	-9.38915
,'--	-9.3895
▁still	-9.39324
▁aata	-9.39503
▁else	-9.39576
;--'	-9.39639
▁following	-9.39785
▁unique	-9.40014
त्य	-9.40085
▁भूतानि	-9.40121
छु	-9.40247
▁le	-9.40405
▁आज	-9.40568
▁bring	-9.40624
▁social	-9.40715
▁used	-9.40762
▁कभी	-9.40787
▁भीतर	-9.40834
▁men	-9.40892
▁second	-9.40907
▁बार	-9.40937
▁To	-9.41011
्व	-9.41058
▁२२	-9.41086
Agni	-9.41219
▁लिया	-9.41498
▁साम	-9.41568
कम्	-9.41833
▁नारायण	-9.41899
▁fun	-9.4212
▁set	-9.42148
▁जायते	-9.42175
▁heard	-9.42487
▁altar	-9.42538
▁present	-9.42762
▁How	-9.42766
▁5,	-9.42981
▁un	-9.43014
▁ब्रह्मा	-9.43174
▁Diwali	-9.43189
▁Tumhara	-9.43346
▁series	-9.43349
▁घ	-9.43441
ञ्च	-9.43464
▁सर्वाणि	-9.43562
▁shows	-9.43578
▁four	-9.43692
गा	-9.43811
▁शिव	-9.43825
▁mean	-9.43862
▁lays	-9.43968
▁find	-9.44014
▁गुरु	-9.44058
▁Part	-9.44102
▁उत्तर	-9.44203
▁बहुत	-9.44245
३	-9.44296
▁मनसा	-9.44494
▁खलु	-9.44594
▁space	-9.4461
▁३०	-9.44624
▁परम	-9.44697
▁Scripture	-9.4475
▁लोग	-9.4493
▁कथं	-9.4509
▁beauty	-9.45201
▁शब्द	-9.45212
▁left	-9.45327
ness	-9.45347
▁Sankara	-9.45504
७	-9.45625
▁..............	-9.45631
▁तदेव	-9.45765
▁truly	-9.45829
▁sa	-9.45858
▁action	-9.45874
▁five	-9.46075
▁sacrificer	-9.46082
येत्	-9.46233
▁केवल	-9.46318
▁face	-9.46325
▁apna	-9.46461
▁ground	-9.46498
▁whose	-9.46715
▁फोन	-9.46719
▁Toh	-9.46808
दिति	-9.46891
▁dosti	-9.46986
▁whether	-9.47273
▁.........	-9.47311
Vedanta	-9.47342
▁कौन	-9.47365
▁adventure	-9.47451
▁राम	-9.47506
दि	-9.47738
▁teri	-9.47738
▁Adhvaryu	-9.47769
ञ्	-9.47896
योः	-9.47934
▁khaas	-9.4806
▁मध्ये	-9.48117
▁तृतीय	-9.48126
▁साहब	-9.48346
▁towards	-9.48484
▁तद्	-9.48492
▁Mere	-9.48497
▁गच्छति	-9.48502
l	-9.48567
▁भावः	-9.48657
▁parts	-9.48763
▁२१	-9.48766
▁kal	-9.48823
कं	-9.48865
▁मेरी	-9.48868
ic	-9.48972
▁thoda	-9.49036
Sutras	-9.49065
▁Kuch	-9.49322
▁term	-9.49346
▁further	-9.49414
▁friends	-9.49506
▁get	-9.4984
▁Achha	-9.50009
सो	-9.50133
▁हृदय	-9.50248
is	-9.50283
▁Shayad	-9.50335
▁सो	-9.50389
▁प्रजा	-9.50471
▁Goa	-9.5055
us	-9.5064
9	-9.50825
▁better	-9.50848
तया	-9.50858
▁old	-9.50918
▁Aaj	-9.50979
▁free	-9.50984
▁glad	-9.5116
▁स्थान	-9.51187
▁२४	-9.51323
▁however	-9.51332
▁language	-9.51398
▁वै	-9.51474
ोपनिषत्	-9.51509
▁Kitn	-9.5156
▁त्वं	-9.51679
▁2.	-9.51681
▁परा	-9.51805
▁scriptural	-9.51828
▁सूर्य	-9.51857
▁yoga	-9.51887
This	-9.5189
▁पास	-9.52109
▁पाद	-9.52205
▁diya	-9.52237
▁Sahi	-9.52265
▁believe	-9.52284
▁Definitely	-9.52347
▁matter	-9.52399
▁want	-9.52414
▁भूत्वा	-9.52424
▁whatever	-9.52439
▁full	-9.5259
▁humesha	-9.5267
▁keh	-9.52696
▁pehle	-9.52733
श्र	-9.52926
▁देख	-9.53123
▁mentioned	-9.53136
▁voice	-9.53211
वत्	-9.53226
▁others	-9.5344
▁give	-9.53449
▁kind	-9.53531
▁samajh	-9.53624
▁संग	-9.53712
▁अत्र	-9.53787
▁head	-9.53876
▁puts	-9.53912
▁pal	-9.53934
▁dream	-9.53957
हि	-9.54046
▁declares	-9.54047
▁आकाश	-9.54075
▁Chalo	-9.54091
भी	-9.54176
▁श्री	-9.54436
▁Our	-9.5449
Kh	-9.54503
▁२७	-9.54665
▁कह	-9.54749
ज्ञ	-9.54983
ujan	-9.55053
▁Ramanuja	-9.55054
▁raman	-9.55055
▁souls	-9.55135
▁48:	-9.55149
स्तथा	-9.55155
▁२५	-9.55158
▁करता	-9.55312
▁need	-9.55367
▁course	-9.55481
▁jata	-9.55528
▁त्व	-9.55609
▁taste	-9.55824
▁inspire	-9.55839
▁essence	-9.55848
▁beech	-9.5592
तेषां	-9.55971
▁दुःख	-9.56136
▁उप	-9.56166
▁ल	-9.5617
था	-9.56228
▁conversation	-9.5635
▁off	-9.56415
क्	-9.56423
▁show	-9.56439
▁recognition	-9.56444
▁possible	-9.56444
▁ब्राह्मण	-9.56584
▁यद	-9.56873
▁स॒	-9.56931
vedant	-9.56945
▁हूँ	-9.56975
May	-9.5699
▁shankracharya	-9.57146
▁jagah	-9.5715
▁milte	-9.57163
▁days	-9.57164
्वा	-9.57235
▁प्रथम	-9.5728
▁होते	-9.57458
▁वाले	-9.57539
▁यज्ञ	-9.57585
▁Sab	-9.57606
▁उससे	-9.57631
▁whom	-9.57728
▁Mera	-9.57858
▁Hi	-9.58053
▁born	-9.58162
▁—	-9.58411
▁connexion	-9.58455
▁hone	-9.58606
▁३३	-9.58616
र्य	-9.58639
▁हरिः	-9.587
▁regard	-9.58791
▁आपको	-9.58811
▁करना	-9.58838
पदं	-9.58872
▁धर्म	-9.58875
▁गौतमी	-9.58936
▁strong	-9.58999
▁योगी	-9.59191
▁conversations	-9.592
;'	-9.59209
▁सकते	-9.59298
▁Fourt	-9.5936
▁पिता	-9.59408
▁living	-9.59559
▁Hotri	-9.59593
 1	-9.59757
▁objects	-9.59768
▁Footnotes	-9.60006
▁jaise	-9.60006
पूतो	-9.60007
▁जीवन	-9.6008
▁doctrine	-9.60105
▁intelligence	-9.60251
▁spiritual	-9.60265
▁continues	-9.60293
▁start	-9.60349
▁achha	-9.60369
▁chahta	-9.60369
▁wala	-9.6037
▁चित्त	-9.60425
▁3.	-9.60432
▁human	-9.60467
▁promise	-9.6058
▁understanding	-9.6066
▁मगर	-9.60739
▁magical	-9.60757
▁lucky	-9.60805
४	-9.60903
▁quality	-9.60917
▁someone	-9.60932
मो	-9.61034
▁मोक्ष	-9.61075
▁looking	-9.61153
which	-9.61247
▁तस्या	-9.61263
▁P	-9.61531
▁read	-9.61571
▁सकती	-9.61594
ला	-9.61621
▁ओ	-9.61809
▁hamari	-9.62014
▁Kais	-9.62033
▁मैडम	-9.62111
▁२६	-9.62142
चा	-9.62179
▁famous	-9.62206
altar	-9.62383
▁moon	-9.62393
ले	-9.62401
▁मया	-9.62465
▁सव	-9.62498
णि	-9.62581
ya	-9.62794
▁dreams	-9.62875
ाभ्यां	-9.62878
िक	-9.62888
▁wale	-9.62951
▁themselves	-9.6297
Bri	-9.63004
▁Ter	-9.63007
▁beyond	-9.63047
▁chapter	-9.63136
▁chai	-9.63137
९	-9.633
▁thinking	-9.63302
▁book	-9.63305
▁energy	-9.63447
▁meant	-9.6348
▁fact	-9.63525
:3	-9.63613
▁फ	-9.63652
▁Bilkul	-9.637
भि	-9.63748
▁अन्ना	-9.63755
▁जगत्	-9.63814
▁performed	-9.63847
▁सोम	-9.64083
▁put	-9.64116
ष्ट	-9.64178
▁thee	-9.64196
▁family	-9.64266
▁दिन	-9.64283
▁३२	-9.64288
▁Me	-9.64356
▁passion	-9.64385
▁समझ	-9.64501
ङ	-9.64572
▁discuss	-9.64692
▁deep	-9.64732
▁याति	-9.64963
▁doubtless	-9.65029
ेत्	-9.65231
प्	-9.65232
▁Exactly	-9.65263
▁पाप	-9.65281
ोऽहं	-9.65381
▁Your	-9.65438
▁change	-9.6544
ैव	-9.6545
▁romance	-9.65454
S	-9.65481
ान	-9.655
कार	-9.65537
▁statement	-9.65544
▁अपना	-9.65547
▁aaya	-9.65687
ाद	-9.65738
▁३४	-9.65876
वान्	-9.65987
▁पुरुषो	-9.66041
▁rather	-9.66176
▁Veda	-9.66258
यु	-9.66268
▁जन	-9.66306
▁remember	-9.66418
▁modern	-9.66558
▁तब	-9.6666
▁duniya	-9.66757
्विति	-9.66804
▁पद	-9.67007
▁mauka	-9.67152
▁perform	-9.67172
▁नास्ति	-9.67308
▁pure	-9.67387
▁dost	-9.67408
▁इदं	-9.67429
▁discussion	-9.67484
aroor	-9.67534
▁चतुर्थ	-9.67599
▁objection	-9.67876
▁बाहर	-9.67963
▁जाने	-9.68005
▁doubt	-9.68119
▁२८	-9.68156
▁...	-9.6826
▁unki	-9.68301
▁kaam	-9.6841
▁eye	-9.6843
षि	-9.68632
not	-9.68635
▁death	-9.68675
▁ideas	-9.6871
्यते	-9.68861
▁Delhi	-9.68914
▁kahani	-9.6903
▁फल	-9.69224
▁२९	-9.69358
▁knowing	-9.69401
▁keep	-9.69418
▁Or	-9.6946
▁वाली	-9.69558
quite	-9.69642
▁explained	-9.69728
▁Of	-9.69841
▁VIII	-9.6988
▁found	-9.6989
▁eyes	-9.69959
▁लग	-9.70193
मन	-9.70284
▁waise	-9.70327
▁bricks	-9.70351
▁effects	-9.70435
▁purpose	-9.70668
मिदं	-9.70704
धा	-9.7075
▁माया	-9.70815
▁literature	-9.70915
▁dekhne	-9.70943
▁asked	-9.70945
▁Then	-9.70965
▁touch	-9.71001
▁कथ	-9.71032
from	-9.71073
▁शान्त	-9.71075
ar	-9.7113
▁सुख	-9.71199
▁कल	-9.71252
ाणां	-9.71271
दो	-9.71428
▁मुनिया	-9.71488
▁chahti	-9.71524
वत	-9.71816
▁ghar	-9.72075
▁सत्यं	-9.72151
▁त्रि	-9.7225
th	-9.72293
▁भगव	-9.72398
▁topic	-9.72517
▁bana	-9.72591
व्य	-9.72614
▁अन	-9.72631
paragraph	-9.72651
नां	-9.72663
ङ्ग	-9.7285
▁बन	-9.72897
▁प्रथमा	-9.73021
▁heaven	-9.7308
▁शक्ति	-9.73086
▁प्राणो	-9.73449
▁imagine	-9.735
▁She	-9.73544
▁couldn	-9.73634
▁बस	-9.73654
न्य	-9.73996
▁butter	-9.73996
▁नित्य	-9.74094
▁मह	-9.74298
ोऽसि	-9.74303
▁सर्वा	-9.744
▁similar	-9.74445
▁सर्वदा	-9.74514
सेव	-9.74608
b	-9.74621
▁यही	-9.74651
्यं	-9.74751
▁entire	-9.74882
▁याज्ञवल्क्य	-9.74932
▁produced	-9.75002
▁anything	-9.75077
▁final	-9.75222
▁विषय	-9.75271
▁चेव	-9.75296
▁acha	-9.75306
ृ	-9.7534
▁रात	-9.75374
द्य	-9.75416
ोऽध्यायः	-9.75437
▁इत	-9.75442
▁काल	-9.75487
▁former	-9.75496
▁जल	-9.75518
डु	-9.75686
▁milti	-9.75698
▁team	-9.75698
▁intelligent	-9.75922
▁तुम्हें	-9.7601
दं	-9.76031
हं	-9.76051
▁जन्म	-9.76079
▁देवी	-9.76122
▁तरह	-9.76122
▁ready	-9.76129
देव	-9.76146
५	-9.76205
That	-9.76258
▁manner	-9.76331
▁mei	-9.76351
▁tarah	-9.76531
▁विष्णु	-9.76739
▁अव	-9.76775
▁school	-9.7678
▁चक्र	-9.76831
p	-9.76891
▁विद्यते	-9.76947
▁sure	-9.76958
▁waqt	-9.76959
▁reference	-9.76962
▁batao	-9.77033
१	-9.77133
▁media	-9.77146
▁moreover	-9.77178
u	-9.77202
▁होगी	-9.77226
▁देखा	-9.77301
▁नव	-9.77605
▁संभव	-9.77621
ोऽयं	-9.77773
▁partner	-9.7781
▁vi	-9.7791
▁आए	-9.77911
▁general	-9.7794
▁king	-9.77973
▁stand	-9.78025
॒	-9.78151
▁बाद	-9.78297
le	-9.78444
▁अह	-9.78458
▁during	-9.78481
▁given	-9.78503
ार्थ	-9.78535
;--	-9.78543
▁No	-9.78549
रू	-9.78686
▁consists	-9.78748
▁teacher	-9.78779
▁hun	-9.78855
धि	-9.78909
▁E	-9.79107
▁excitement	-9.79131
▁around	-9.79162
▁प्रिय	-9.79228
▁मधु	-9.79252
▁कार्य	-9.79286
▁कहीं	-9.79342
▁admit	-9.79346
▁elements	-9.79505
ेत	-9.79529
▁Sound	-9.7957
▁hue	-9.79636
▁पुत्र	-9.79663
▁जी	-9.79778
▁क्षण	-9.79945
▁bliss	-9.80071
▁These	-9.80105
▁कृत	-9.80107
▁wahi	-9.80136
▁अन्य	-9.8018
▁6,	-9.80227
▁M	-9.8026
▁Great	-9.8032
▁X	-9.80338
▁hold	-9.80475
▁पप्रच्छ	-9.80551
▁perception	-9.80558
veda	-9.80564
▁meet	-9.80572
▁ordinary	-9.80742
▁करती	-9.80766
झ	-9.80833
▁Nor	-9.80911
▁करोति	-9.80943
▁कु	-9.8095
▁essential	-9.81014
▁Sacrificer	-9.81046
▁attributes	-9.8112
▁अस्य	-9.81137
▁Sankaracharya	-9.8135
▁result	-9.81429
▁Kânva	-9.81577
▁सच	-9.81594
▁lives	-9.81707
▁Hence	-9.81772
▁भस्म	-9.81834
â	-9.82022
▁maybe	-9.82036
▁masti	-9.82184
▁पूछा	-9.82237
भर	-9.82389
▁दोनों	-9.8241
▁Vishnu	-9.8241
▁character	-9.82487
!”	-9.82545
▁movies	-9.82576
▁cognition	-9.82851
▁naya	-9.82883
▁friend	-9.82917
v	-9.82919
▁front	-9.82934
▁along	-9.83058
▁D	-9.83124
▁Thus	-9.83157
▁offered	-9.83263
▁K	-9.83297
िया	-9.83306
▁established	-9.8357
दे	-9.83594
▁style	-9.83679
▁charm	-9.83749
▁bata	-9.83843
▁cup	-9.83849
▁aise	-9.83878
▁desh	-9.8397
▁उनका	-9.84093
▁challenges	-9.84122
▁kitne	-9.84146
नु	-9.84159
▁तत	-9.84296
▁neither	-9.84432
▁little	-9.84543
▁hona	-9.84577
▁Br	-9.84845
with	-9.84861
▁became	-9.84864
▁सोऽ	-9.84983
▁अर्थ	-9.85
ेक	-9.85094
▁absolutely	-9.85254
▁system	-9.85256
▁३१	-9.85295
▁३९	-9.85345
▁बिना	-9.85445
▁Ko	-9.85501
▁Same	-9.85517
▁dete	-9.85567
स्ति	-9.85569
▁३७	-9.85579
▁thank	-9.85618
▁ऊपर	-9.85712
hi	-9.85755
ra	-9.85779
▁follow	-9.85859
▁wali	-9.8592
तर	-9.85989
मध्ये	-9.86044
▁यद्	-9.86119
▁child	-9.86176
▁refers	-9.86282
▁books	-9.86363
▁raat	-9.86387
▁offer	-9.86416
▁पुरुषः	-9.8642
▁lagti	-9.86449
▁३५	-9.86463
▁ऐसा	-9.86579
▁मुंह	-9.86603
en	-9.8674
▁iss	-9.86765
est	-9.8687
▁strength	-9.86883
र्न	-9.86954
▁तस्म	-9.87012
▁behind	-9.87028
▁खा	-9.8707
am	-9.87109
▁separate	-9.872
्‍ा	-9.87278
▁परे	-9.87298
What	-9.87333
▁city	-9.87368
▁tell	-9.87379
▁Varuna	-9.8739
▁clause	-9.87395
▁कुमारसंभवम्	-9.87403
O	-9.87817
▁Maybe	-9.87845
मान	-9.87855
ाव	-9.87855
!'--	-9.87884
नो	-9.87887
▁river	-9.88043
▁skills	-9.88081
▁longer	-9.88105
▁v	-9.88121
▁4.	-9.88129
▁पूर्ण	-9.88317
▁समा	-9.88341
▁material	-9.88348
▁verses	-9.88396
▁wish	-9.88411
1	-9.88576
▁सर्वत्र	-9.88608
▁join	-9.88815
▁milta	-9.88861
▁पा	-9.88966
▁comes	-9.89015
▁ध	-9.89016
नम्	-9.89244
▁gives	-9.8925
▁तिष्ठति	-9.89403
▁seed	-9.89433
▁shall	-9.89449
▁kauns	-9.89484
▁cute	-9.89518
▁श्र	-9.89649
▁तू	-9.89652
▁दु	-9.89707
▁songs	-9.89715
▁baarish	-9.89789
2	-9.8981
▁कारण	-9.89847
▁अत	-9.89889
च्	-9.89902
स्वरूप	-9.89944
▁From	-9.89954
▁His	-9.89957
▁belongs	-9.89964
▁शकुन्तला	-9.90004
स्तस्य	-9.90119
वो	-9.90131
▁Mumbai	-9.90266
 1.	-9.90466
▁times	-9.90469
ाश्च	-9.90477
▁creatures	-9.90523
▁युक्त	-9.90662
रै	-9.90681
▁दूर	-9.90732
▁wahaan	-9.90772
▁incredible	-9.90798
▁३६	-9.91018
 1,	-9.91034
▁level	-9.91052
▁hear	-9.91141
स््‍	-9.91143
पर	-9.91228
▁especially	-9.91347
▁रख	-9.91404
▁focus	-9.91456
▁path	-9.91553
▁tune	-9.91577
▁shayad	-9.91749
▁badh	-9.91767
▁remains	-9.91883
▁relation	-9.91943
ka	-9.92101
▁ड	-9.92184
‍य	-9.9221
▁hope	-9.92312
मयि	-9.92336
▁T	-9.92367
▁एते	-9.92383
▁व्यक्ति	-9.92543
ate	-9.92753
गो	-9.92758
▁tab	-9.9279
▁द्वितीया	-9.92895
▁belong	-9.92933
Thou	-9.92964
▁technology	-9.93002
▁इसलिए	-9.93039
▁वही	-9.93124
▁oblations	-9.93166
▁bina	-9.93255
▁लगी	-9.93469
▁प्राणा	-9.9349
▁names	-9.9352
▁humne	-9.93546
▁iii	-9.93569
▁di	-9.9362
▁song	-9.93622
नः	-9.93623
यन्ति	-9.93662
मेवाप्येति	-9.93707
स्वा	-9.93756
▁चाहिए	-9.93763
▁deti	-9.93786
▁oblation	-9.94016
▁Bas	-9.94103
▁sacrifices	-9.94153
▁third	-9.94176
▁created	-9.94258
▁hume	-9.94364
ामि	-9.94389
भूत	-9.94439
▁favourite	-9.94528
▁सर्च	-9.94657
▁B	-9.94713
▁cultural	-9.94784
▁creation	-9.94806
▁चेति	-9.9484
▁पञ्चम	-9.94904
▁Smriti	-9.95019
▁उवाच	-9.95049
▁airs	-9.95051
▁small	-9.95123
▁आपके	-9.95228
ाह	-9.95272
▁बि	-9.95279
मू	-9.95294
▁exciting	-9.95298
▁jaate	-9.95307
▁इत्यमरः	-9.95337
▁प्रेम	-9.95341
▁hui	-9.95358
भाव	-9.95534
युक्त	-9.95555
▁match	-9.95564
In	-9.95817
चे	-9.95819
▁नु	-9.95827
▁soon	-9.95841
६	-9.95862
▁prâna	-9.95964
ज्ञानं	-9.96003
द्र	-9.96086
▁हमें	-9.96118
▁instance	-9.96151
वी	-9.96242
▁khud	-9.96336
▁छोड़	-9.96411
आ	-9.96422
▁north	-9.96445
▁स्थिति	-9.96473
acche	-9.96523
▁cattle	-9.96526
▁स्म	-9.96537
▁worry	-9.96597
▁इन	-9.96725
▁Just	-9.96853
▁haal	-9.96863
▁seven	-9.96904
▁सवे	-9.97005
▁संजय	-9.97038
▁although	-9.97041
▁2020-21	-9.97121
▁Having	-9.97219
▁दश	-9.97253
▁maintain	-9.97277
▁सूक्ष्म	-9.97328
▁स्यात्	-9.97332
▁रस	-9.97369
▁milk	-9.97425
▁stress	-9.97618
▁sound	-9.97624
ड़	-9.97725
▁exist	-9.97828
▁प्रोक्त	-9.97939
लि	-9.97976
▁Can	-9.97994
▁wind	-9.98007
क्षरं	-9.9803
▁ह्य	-9.98084
▁bol	-9.98179
▁ज्ञात्वा	-9.98181
▁रह	-9.98187
▁moves	-9.98237
▁Sâyana	-9.98391
▁south	-9.98419
▁संसार	-9.98465
▁study	-9.98468
ष्य	-9.98536
▁wo	-9.98639
▁actions	-9.98664
फ	-9.98805
▁7,	-9.98813
ङ्	-9.98821
▁desire	-9.98839
▁yonder	-9.98868
वं	-9.98912
▁evening	-9.98968
▁felt	-9.98978
लो	-9.99105
▁३८	-9.9911
▁waha	-9.99153
▁lost	-9.9925
21	-9.99338
▁क्योंक	-9.9937
▁४०	-9.99428
▁थीं	-9.99503
▁rehna	-9.99556
▁भगवान्	-9.99664
▁company	-9.99785
▁लेकर	-9.99899
▁मौन	-9.99936
▁रक्त	-9.99947
▁fashion	-9.99974
▁अस्तित्व	-9.99974
▁रुद्र	-9.99987
▁स्मिता	-10.0005
Let	-10.0009
▁जरूरत	-10.0014
▁श्रोत्र	-10.0014
यम्	-10.002
▁मुक्त	-10.002
▁deities	-10.0024
?--	-10.0028
▁इसे	-10.0029
▁जाते	-10.0031
स्ते	-10.0032
▁ठीक	-10.0035
▁त्वा	-10.0035
▁नित्यं	-10.0035
▁release	-10.0042
स्थान	-10.0049
▁लो	-10.0049
▁Usk	-10.0068
▁rain	-10.0069
▁scripture	-10.0069
▁festival	-10.007
▁४७	-10.0073
▁act	-10.0074
▁saying	-10.0077
▁bada	-10.008
▁went	-10.0087
रि	-10.0088
▁exams	-10.0096
▁consisting	-10.0103
▁तीन	-10.0105
▁abode	-10.0113
▁mujhse	-10.0114
क्ष	-10.0121
▁देवो	-10.0121
▁number	-10.0124
▁आंटी	-10.014
▁sometimes	-10.0147
▁teach	-10.0158
▁सिर	-10.0162
▁lot	-10.0164
▁thy	-10.0169
▁goes	-10.0183
▁waters	-10.0184
▁built	-10.0184
▁प्रतितिष्ठ	-10.0197
To	-10.0212
▁among	-10.0215
▁विज्ञान	-10.0216
It	-10.0217
▁mushkil	-10.0224
▁संकल्प	-10.0236
▁त्वमेव	-10.0237
षा	-10.0238
tna	-10.0243
▁connect	-10.0249
▁karni	-10.025
▁पीछे	-10.0257
▁referred	-10.0265
दु	-10.0266
▁तुरीय	-10.0282
▁ब्रह्मण	-10.0284
▁trek	-10.0291
▁deity	-10.0295
▁gold	-10.0298
▁निकल	-10.0301
38)	-10.0301
▁प्रजापति	-10.0303
▁round	-10.0307
▁common	-10.0308
▁देने	-10.0309
▁उन	-10.0313
▁Nescience	-10.0322
 2	-10.0327
मु	-10.033
ाथ	-10.0331
▁mann	-10.0333
▁मिल	-10.0345
▁preceding	-10.0346
▁debate	-10.0347
▁सोच	-10.0348
▁Mai	-10.0357
ात्म	-10.036
▁Maine	-10.0367
▁surprise	-10.0367
▁author	-10.0375
▁live	-10.0376
त्त	-10.0385
मात्र	-10.0386
▁play	-10.0387
▁joy	-10.0388
▁continue	-10.039
▁According	-10.0393
▁AM	-10.0393
▁dekhna	-10.0395
▁samay	-10.04
▁सामने	-10.0406
▁कला	-10.041
▁राज	-10.0422
▁Vedânta	-10.0425
▁mazaa	-10.0432
▁मेरा	-10.0434
▁Have	-10.0434
▁often	-10.0441
For	-10.0452
▁Wahan	-10.0453
्त	-10.0458
▁पानी	-10.046
ली	-10.046
▁नाडी	-10.0462
▁उठा	-10.0462
▁due	-10.0468
▁सप्त	-10.0468
▁raised	-10.0468
▁eternal	-10.0476
▁Commentary	-10.0476
▁seasons	-10.0479
वः	-10.0488
▁lete	-10.0496
प्य	-10.0502
▁One	-10.0508
णा	-10.0508
▁समान	-10.0508
▁बना	-10.0521
र्थ	-10.0522
▁सोम्य	-10.0524
▁meditations	-10.0541
मी	-10.0544
▁causes	-10.0547
▁tale	-10.0555
हे	-10.0556
▁look	-10.0561
▁alone	-10.0562
▁later	-10.0564
▁online	-10.057
▁पुण्य	-10.0571
भय	-10.0583
▁personal	-10.0594
▁पुन	-10.0601
▁प्रकृति	-10.0606
▁si	-10.0608
▁अनु	-10.061
▁various	-10.0616
▁puri	-10.0619
▁conclusion	-10.0619
book	-10.062
▁Kâ	-10.0626
▁कुरु	-10.0631
▁ता	-10.0643
ri	-10.0646
▁call	-10.0647
▁नम	-10.0649
▁बीच	-10.0658
▁देवः	-10.0666
▁layer	-10.0673
▁भूताना	-10.0674
▁unforgettable	-10.0677
▁skin	-10.068
ity	-10.0681
▁against	-10.0687
▁hard	-10.0688
▁नमिता	-10.0691
▁भविष्य	-10.0692
▁tree	-10.0698
िका	-10.0699
▁keht	-10.07
▁complete	-10.0701
▁magic	-10.0702
la	-10.0711
▁assume	-10.0711
▁बुद्धि	-10.0712
▁understood	-10.0713
▁रहस्य	-10.0715
▁sleep	-10.0719
▁measure	-10.0721
▁चाय	-10.0732
▁तृतीया	-10.0732
▁द्वादश	-10.0733
▁hundred	-10.0735
▁हंस	-10.0735
हर	-10.074
▁web	-10.0751
▁लगता	-10.0759
८	-10.076
▁jaye	-10.0762
▁lord	-10.0764
▁बताया	-10.0764
▁[1896]	-10.0764
▁सुखं	-10.0764
▁finally	-10.0768
▁socha	-10.0772
▁brought	-10.0775
▁2\	-10.0778
!--	-10.0783
▁Nahi	-10.0791
▁8,	-10.0794
▁mai	-10.0798
▁immortal	-10.0806
▁metre	-10.0816
▁४३	-10.0831
▁dekha	-10.0839
▁भा	-10.0845
▁formula	-10.0848
▁jyada	-10.0852
▁Agar	-10.0853
▁pyar	-10.0854
▁considered	-10.0854
▁शत	-10.0855
▁rich	-10.0859
▁वहाँ	-10.086
▁beach	-10.0862
▁प्रतिष्ठा	-10.0866
▁पहुंच	-10.0872
▁distinction	-10.0872
▁वाव	-10.0874
▁today	-10.0874
मेति	-10.0875
▁yes	-10.0876
▁बता	-10.0877
▁तप	-10.0878
▁lead	-10.0886
▁रहीं	-10.089
▁तस्मा	-10.089
पद	-10.089
रु	-10.0893
▁plants	-10.0902
समाप्ता	-10.0906
▁presence	-10.0911
▁saare	-10.0912
▁pleasure	-10.0926
्म	-10.0928
▁जाए	-10.0933
▁iv	-10.0939
▁banat	-10.095
▁Sûtras	-10.095
शा	-10.0954
0	-10.0956
▁stage	-10.0956
▁सी	-10.0957
ेच	-10.0966
▁बहु	-10.0968
▁particular	-10.0969
▁साधु	-10.0973
▁states	-10.0981
▁cheez	-10.0984
ाम्	-10.0987
▁एन	-10.0996
सौ	-10.1
▁प्रणव	-10.1
▁Gârhapatya	-10.1001
▁substance	-10.1004
ेऽपि	-10.1009
▁THE	-10.1031
▁honge	-10.1033
▁अनुभव	-10.1033
▁लोके	-10.1035
▁प्राप्य	-10.1036
▁इद	-10.1037
▁logon	-10.1039
▁shape	-10.1057
▁योनि	-10.106
▁पश्यति	-10.1061
▁छन्द	-10.1085
▁holds	-10.1091
▁whence	-10.1098
▁pain	-10.11
▁jaana	-10.1108
▁Don	-10.1112
▁freedom	-10.1121
▁लौट	-10.1123
ke	-10.1131
▁VII	-10.1135
▁भू	-10.1135
▁अन्न	-10.1151
▁सुबह	-10.1154
तीति	-10.1155
▁seems	-10.1161
▁पता	-10.1167
breathing	-10.1173
▁स्वा	-10.1174
sed	-10.1174
▁heritage	-10.1182
▁अचानक	-10.1182
▁सर्वेषां	-10.1185
like	-10.1191
भवति	-10.1193
▁तां	-10.1197
▁local	-10.1198
acchi	-10.1198
33.	-10.1199
▁४४	-10.1202
▁इम	-10.1204
▁भो	-10.121
▁class	-10.121
▁khoobsurat	-10.1212
▁एथिवी	-10.1218
▁दृष्टि	-10.1225
▁ask	-10.1225
▁दक्षिण	-10.1234
▁inspiration	-10.1243
Work	-10.1243
▁outside	-10.1243
▁प्रतिष्ठित	-10.1244
दी	-10.1249
▁aisa	-10.1251
sacrifice	-10.1254
▁चै	-10.126
▁wajah	-10.1273
▁yahaan	-10.1274
▁षष्ठ	-10.1281
▁agent	-10.129
की	-10.1291
▁अधिक	-10.1297
▁हृदि	-10.1301
▁western	-10.1302
▁मौसी	-10.1303
▁history	-10.1304
▁शुरू	-10.1304
itne	-10.1313
▁filled	-10.1315
▁हमार	-10.1321
▁जायन्ते	-10.1323
▁influence	-10.1326
▁half	-10.1327
44.	-10.1332
▁positive	-10.1338
▁ja	-10.134
▁refer	-10.1342
ज्ञान	-10.1348
▁गुण	-10.1348
):	-10.1349
▁ली	-10.1349
▁appears	-10.1351
▁होना	-10.1352
▁७०	-10.1356
▁dedication	-10.1366
one	-10.1375
▁cow	-10.1386
are	-10.1388
▁Vaisvânara	-10.1398
▁चल	-10.1405
▁बन्ध	-10.1407
▁हृ	-10.1417
▁higher	-10.1424
न्तं	-10.1425
▁शायद	-10.1428
▁पुरा	-10.1433
ाति	-10.1434
-19	-10.1435
▁speak	-10.1435
▁enter	-10.1439
▁cake	-10.1449
▁केन	-10.1453
▁weekend	-10.1459
▁jayega	-10.146
▁rahenge	-10.146
▁jaati	-10.146
▁done	-10.147
▁Here	-10.1481
कि	-10.1485
▁house	-10.1497
▁आदि	-10.1507
▁middle	-10.1511
▁god	-10.1513
▁origination	-10.1523
▁sunke	-10.1524
▁स्	-10.1527
▁स्त्र	-10.1528
▁womb	-10.1532
▁उप०	-10.1536
▁At	-10.1537
viz	-10.1539
▁rest	-10.1541
▁travel	-10.1544
▁Not	-10.1544
▁ghee	-10.1546
▁2	-10.1547
ेभ्यः	-10.1562
▁game	-10.1574
▁ten	-10.1578
▁Kabhi	-10.1586
▁completely	-10.1588
▁appreciate	-10.1593
▁गा	-10.1606
▁arises	-10.1609
this	-10.1612
सत	-10.1619
तम	-10.1626
▁४२	-10.1631
िनी	-10.1632
▁तुम्हारे	-10.1647
▁memorable	-10.1649
▁Vedic	-10.165
▁dekhkar	-10.165
▁feels	-10.1652
ोप	-10.1655
▁उभ	-10.1662
▁secret	-10.1671
▁Long	-10.1681
▁wonderful	-10.1681
▁silence	-10.1683
शो	-10.1691
हा	-10.1694
▁देश	-10.1701
▁feelings	-10.1703
ज्	-10.1709
▁exploring	-10.1713
man	-10.1722
kar	-10.1742
▁cool	-10.1745
▁बीज	-10.1746
ation	-10.1755
▁force	-10.1758
▁5	-10.1761
▁Taitt	-10.1771
▁attract	-10.1774
▁sight	-10.1775
▁replied	-10.1777
▁तस्माद	-10.1786
▁pradhâna	-10.179
▁prânas	-10.1795
▁आनन्द	-10.1798
▁अवति	-10.1803
मेच	-10.1806
▁education	-10.1808
▁कः	-10.1816
▁आदित्य	-10.1827
▁वर्ष	-10.1831
▁visit	-10.1836
▁jaata	-10.1843
▁thunderbolt	-10.185
ाना	-10.1851
▁कहते	-10.1856
क्या	-10.1856
▁rice	-10.1861
▁Moreover	-10.1873
सुच्यते	-10.1884
▁गायत्री	-10.1884
▁द्वे	-10.1887
▁पदम्	-10.1889
▁high	-10.1892
▁late	-10.1894
▁exists	-10.1897
▁draws	-10.1898
▁express	-10.1899
▁brahmana	-10.1912
▁भगवन्	-10.1915
▁जग	-10.1915
▁नेव	-10.1927
▁apart	-10.1931
▁forget	-10.1941
▁activity	-10.1945
▁emotions	-10.195
▁एको	-10.1951
▁fruit	-10.1961
▁10	-10.1963
▁inner	-10.1974
▁karungi	-10.1976
▁karunga	-10.1976
▁नीचे	-10.1986
▁mila	-10.1988
▁तया	-10.1989
▁तत्सत्	-10.1992
▁rise	-10.1993
▁मात्रा	-10.1998
सः	-10.1998
▁hands	-10.1999
▁spirit	-10.2005
ङ्क	-10.201
▁परमात्मा	-10.2013
▁तेषु	-10.2014
by	-10.202
owing	-10.2022
▁Dil	-10.2038
▁Juli	-10.2039
▁बावजूद	-10.2039
▁experiences	-10.2043
▁milne	-10.2044
va	-10.2053
ात्मनि	-10.2058
त्मानं	-10.206
▁७७	-10.2067
▁4	-10.2072
▁Eggeling	-10.2073
▁Âhavanîya	-10.2073
▁४८	-10.2074
▁सिद्ध	-10.2076
क्र	-10.2098
द्व	-10.21
मय	-10.2105
▁Rationali	-10.2106
▁chemistry	-10.2106
▁प्रत्यय	-10.2111
▁traditions	-10.2112
मैं	-10.2119
55.	-10.2126
▁गो	-10.2127
▁शिखा	-10.2132
able	-10.2135
▁condition	-10.2141
ाद्	-10.2154
यान्ति	-10.2154
▁principle	-10.2165
▁तत्त्व	-10.2168
▁wear	-10.2172
▁impact	-10.2173
satapatha	-10.2173
▁हा	-10.2173
▁Really	-10.2173
▁rahega	-10.2175
▁sake	-10.2179
▁प्राप्त	-10.2183
up	-10.2184
î	-10.2198
▁stated	-10.2199
▁morning	-10.2207
▁unity	-10.2208
ात	-10.221
▁learning	-10.2215
ह्	-10.2224
▁कामाय	-10.2228
वर	-10.2232
▁Chal	-10.2233
वन	-10.2233
▁thoughts	-10.2236
▁Har	-10.2238
▁2023-24	-10.224
▁laid	-10.224
▁काळ	-10.2241
▁करो	-10.2242
▁sabko	-10.2243
▁Waha	-10.2244
▁ancient	-10.2246
▁verse	-10.2247
▁poetic	-10.2248
▁आने	-10.2252
▁आगे	-10.2254
चित्तं	-10.2258
▁सन्	-10.2263
▁seem	-10.2267
▁त्यक्त्वा	-10.2267
▁प्रकट	-10.2269
▁युद्ध	-10.2271
▁interest	-10.2272
वेद	-10.2273
▁six	-10.2278
▁वर्ण	-10.228
▁गत	-10.2282
▁सप्तमी	-10.2284
ुच्यते	-10.2285
ग्र	-10.2291
▁जगह	-10.2293
▁held	-10.2294
▁bade	-10.2297
▁इष्ट	-10.2305
▁father	-10.2323
▁वाला	-10.2327
▁miss	-10.2333
▁practice	-10.2336
▁क्रिया	-10.2342
▁absence	-10.2342
▁पार	-10.2345
▁मु	-10.2353
▁मोह	-10.2355
▁संशयः	-10.2357
ro	-10.2357
▁east	-10.2357
▁constitutes	-10.2373
▁brings	-10.2376
ki	-10.2379
▁entered	-10.2382
▁('	-10.2389
▁शेष	-10.239
स्मि	-10.2393
▁science	-10.2394
▁सर	-10.2405
▁मत	-10.2408
▁निश्चित	-10.2411
ासि	-10.2414
▁अनेन	-10.242
ah	-10.2433
▁अति	-10.2434
▁flavors	-10.2434
▁जीवन्मुक्त	-10.2436
▁environment	-10.2443
▁विदूषक	-10.2445
▁liya	-10.2446
▁banayenge	-10.2446
▁थ	-10.2447
▁badi	-10.2451
66.	-10.2455
▁talented	-10.2458
22.	-10.2462
तिः	-10.2468
▁जाती	-10.2475
▁results	-10.2479
▁Bahu	-10.248
पूर्व	-10.2486
▁चलते	-10.249
्स	-10.2492
ाई	-10.25
▁achhe	-10.2515
▁बैठ	-10.2515
▁declare	-10.2515
▁बिन्दु	-10.2519
▁lagte	-10.252
▁प्रथमः	-10.2526
▁pass	-10.2528
▁F	-10.253
▁animal	-10.2534
li	-10.2539
▁past	-10.2549
▁bodies	-10.2565
मं	-10.2571
4	-10.2582
▁hidden	-10.2585
▁lekar	-10.2586
जायते	-10.2586
▁heavenly	-10.2587
vi	-10.2589
▁विशेष	-10.2602
▁चार	-10.2613
▁तेजो	-10.2614
but	-10.2615
▁छुन्नू	-10.2617
▁stands	-10.2621
त्वेन	-10.2624
्यो	-10.2627
▁लोका	-10.2628
▁लेना	-10.263
▁door	-10.2634
▁आत्मानं	-10.2658
▁step	-10.2659
उ	-10.2668
88.	-10.267
ऽपि	-10.2671
▁कमे	-10.2672
▁conclude	-10.2673
▁concert	-10.2681
▁रोज	-10.2684
being	-10.2684
तम्	-10.2684
▁समस्त	-10.2689
▁सौ	-10.269
▁3	-10.269
ितं	-10.2701
▁वासना	-10.2709
▁turn	-10.2714
▁jaane	-10.2715
▁त्वया	-10.2717
▁18	-10.2723
▁youth	-10.2727
परि	-10.2737
▁kiye	-10.2737
P	-10.2744
less	-10.2748
3	-10.2748
▁चेद्	-10.2751
77.	-10.2759
▁६७	-10.2763
▁४६	-10.2767
▁यन्न	-10.2768
▁सुन	-10.2774
▁priests	-10.2782
▁Upanishads	-10.2785
ur	-10.2786
चो	-10.2787
र्ण	-10.2788
▁role	-10.2788
▁fan	-10.2789
▁जरूरी	-10.2799
िर	-10.2799
▁अस्ति	-10.2801
ko	-10.2803
▁इन्द्र	-10.2804
▁taking	-10.2842
▁आघाड़ी	-10.285
▁bhar	-10.2859
▁ई	-10.2864
▁४१	-10.2865
▁द्वि	-10.2865
▁७३	-10.2866
▁biryani	-10.2869
▁muskurahat	-10.2869
▁roz	-10.2869
▁actually	-10.287
▁jaldi	-10.2871
▁banane	-10.2873
वर्ण	-10.2874
▁देवानां	-10.2875
▁व्य	-10.2879
▁aati	-10.2886
यह	-10.2889
▁saw	-10.2892
▁स्थितः	-10.2895
▁years	-10.2896
▁adhikarana	-10.2896
▁निर	-10.2906
▁दोष	-10.2906
▁N	-10.291
▁talking	-10.2913
भू	-10.2914
▁पुष्प	-10.2916
पा	-10.2919
▁कोशिश	-10.2922
▁चन्द्र	-10.2933
▁दिव	-10.2936
▁impossible	-10.2942
भा	-10.2947
called	-10.2949
▁तरति	-10.2953
We	-10.2957
▁शान्ति	-10.2961
महं	-10.2962
ार	-10.2968
्न	-10.2973
▁scene	-10.2974
ज्य	-10.2981
▁co	-10.2986
▁lies	-10.2987
▁chalte	-10.299
▁placed	-10.2995
▁शाल्व	-10.2995
▁7	-10.3003
▁कनोई	-10.3014
▁confidence	-10.3014
▁teaches	-10.3015
▁sapne	-10.3016
▁mouth	-10.303
नाम	-10.3031
▁BRÂHMANA	-10.3033
▁ones	-10.3038
एक	-10.3041
▁वाच	-10.3047
▁Person	-10.305
▁Thereupon	-10.3051
▁Kâty	-10.3054
▁Perfect	-10.3057
▁तन्न	-10.3057
▁मूल	-10.306
रः	-10.3061
▁steps	-10.3062
▁किंचन	-10.3063
▁मृत्यु	-10.3065
▁prayer	-10.3066
▁jaan	-10.3072
▁एता	-10.3073
▁competition	-10.3079
▁प्रकार	-10.3082
▁piece	-10.3087
▁४५	-10.3092
▁७४	-10.3093
रूपेण	-10.3093
▁देवाः	-10.3094
▁ऊ	-10.3097
वापि	-10.3101
भ्य	-10.3102
▁tales	-10.3108
▁अंकल	-10.3112
▁startup	-10.3117
▁manage	-10.3118
▁भूय	-10.3121
त्वात्	-10.3124
▁childhood	-10.3124
▁combination	-10.313
▁स्थित	-10.3131
ting	-10.3133
णं	-10.3134
ाँ	-10.3135
▁walk	-10.314
▁safar	-10.3148
▁श्रीरामचन्द्र	-10.315
▁यम	-10.3156
खा	-10.316
▁Rajasthan	-10.3161
▁दुनिया	-10.3162
▁लगे	-10.3163
▁deta	-10.3164
▁चतु	-10.3167
गे	-10.3179
▁६०	-10.3183
▁सरस्वती	-10.3191
.'--	-10.3195
'--	-10.3198
▁cricket	-10.3198
▁traffic	-10.3198
▁blend	-10.3199
▁जहाँ	-10.32
▁Rig	-10.3201
▁5.	-10.3218
▁नौकरी	-10.3226
▁हृदये	-10.3232
▁Hinglish	-10.3236
▁taraf	-10.3236
▁several	-10.3236
▁kehna	-10.3241
ण्ड	-10.3241
हम	-10.3242
▁falling	-10.3242
याँ	-10.3244
▁tradition	-10.3257
▁ग्र	-10.3258
ान्य	-10.3259
You	-10.3261
च्य	-10.3261
च्च	-10.3261
मव	-10.3262
▁grass	-10.3262
काले	-10.3263
▁fires	-10.3263
णु	-10.3266
▁rang	-10.3266
▁clay	-10.3268
▁formulas	-10.3276
▁shown	-10.3278
▁mast	-10.3279
▁प्रा	-10.328
ळं	-10.3283
▁bitan	-10.3283
▁God	-10.3283
रूपा	-10.3284
▁woman	-10.3286
▁पश्य	-10.3286
प्राण	-10.3287
▁ऐसी	-10.3288
▁destruction	-10.3293
▁metres	-10.3293
तस्य	-10.3297
▁challenge	-10.3301
▁तस्मात्	-10.3305
▁sets	-10.331
▁vigour	-10.3311
सू	-10.3312
▁Their	-10.3313
▁सहस्र	-10.3313
▁turned	-10.3316
▁Vedas	-10.3322
▁आंखें	-10.3325
▁५०	-10.3329
▁अगर	-10.3331
▁समुद्र	-10.3334
▁अक्षर	-10.3334
▁6	-10.3338
मयः	-10.3345
▁though	-10.3348
▁return	-10.335
▁ऋषि	-10.3352
▁खोल	-10.3352
99.	-10.3356
लं	-10.3364
?'	-10.3367
▁talent	-10.3375
ment	-10.3376
▁नष्ट	-10.338
▁problem	-10.338
▁अलग	-10.3383
▁जाना	-10.3384
कारः	-10.3385
▁break	-10.3387
▁yahan	-10.3388
▁twelve	-10.3392
एँ	-10.3393
▁जयति	-10.3402
▁Together	-10.3406
हीन	-10.341
▁twenty	-10.3414
▁village	-10.3418
ष्	-10.3419
▁injunction	-10.3421
▁altogether	-10.3425
▁8	-10.3425
▁tried	-10.3425
▁भाषा	-10.3426
And	-10.3427
▁जिसक	-10.3428
्थ	-10.3429
▁देर	-10.3431
काय	-10.3432
▁13	-10.3435
▁Who	-10.3435
▁spoken	-10.344
▁Pa	-10.344
▁syllables	-10.344
▁seeing	-10.3448
▁universe	-10.345
▁गाड़ी	-10.3451
▁blush	-10.3453
▁नई	-10.3459
▁profound	-10.3463
▁Pata	-10.3464
▁badal	-10.3465
▁जय	-10.3468
लु	-10.3469
▁illusion	-10.3471
▁शकुंतला	-10.3472
▁दि	-10.3472
:4	-10.3476
▁aayega	-10.3481
▁reach	-10.3486
▁terms	-10.3491
▁organs	-10.3498
iz	-10.3505
▁forever	-10.3509
▁देखते	-10.3518
▁स्वरूप	-10.3518
▁Being	-10.3523
▁मतलब	-10.3524
▁लिख	-10.353
▁कहां	-10.3536
नेन	-10.3539
▁ehsaas	-10.3539
▁सबसे	-10.3546
▁karein	-10.3546
▁room	-10.3549
त्या	-10.3554
▁met	-10.3555
▁भेद	-10.3559
▁Savitri	-10.3561
▁परमा	-10.3563
▁निश्चय	-10.3564
▁पु	-10.3567
▁plans	-10.3577
▁source	-10.3577
▁khana	-10.3579
▁denotes	-10.3581
ास्ति	-10.3603
▁सत	-10.3603
▁thousand	-10.3608
▁friendship	-10.3611
▁choice	-10.3611
▁proved	-10.3613
▁saari	-10.3617
▁जात	-10.362
▁Did	-10.3621
▁सकल	-10.3622
▁जीवित	-10.3623
यित्वा	-10.3627
7	-10.3628
पत्र	-10.3633
चु	-10.3639
मात्रेण	-10.364
▁महसूस	-10.3656
8	-10.3658
▁single	-10.3658
ल्	-10.3666
▁celebrate	-10.3668
▁स्मर	-10.3669
कारो	-10.3673
स्त्व	-10.3677
गी	-10.3685
▁son	-10.3689
▁भाति	-10.3689
▁society	-10.3695
▁reached	-10.3699
▁पुराण	-10.3701
▁प्रियंवदा	-10.3707
▁शारीर	-10.3712
▁वन	-10.373
pan	-10.3735
▁home	-10.3738
▁ज्ञात	-10.3752
▁direct	-10.3753
क्त	-10.3759
/20	-10.3773
फल	-10.3773
▁अभी	-10.3774
▁tera	-10.3774
▁खड़ी	-10.3775
▁देना	-10.3775
पु	-10.3778
▁teaching	-10.3782
▁छोक	-10.3782
▁declared	-10.3782
▁सूत	-10.3783
▁वाचा	-10.3785
▁viewed	-10.3793
de	-10.3793
▁दा	-10.3796
▁रति	-10.3799
▁भय	-10.3802
ty	-10.3804
थि	-10.3805
दान	-10.3809
▁दिए	-10.3815
्रा	-10.3824
▁चु	-10.3827
ापि	-10.3828
स्या	-10.3832
▁aage	-10.3835
▁नजर	-10.3836
▁country	-10.3853
▁pûrvapakshin	-10.3853
▁PM	-10.3853
▁dwelling	-10.3855
▁unto	-10.3856
▁बल	-10.3859
▁हँसी	-10.386
ेभ्यो	-10.3861
▁powers	-10.3862
▁vibrant	-10.3862
▁won	-10.3863
▁animals	-10.3864
▁wife	-10.3868
▁जाकर	-10.387
yan	-10.3875
▁creative	-10.3882
िता	-10.3884
▁thanks	-10.3888
णो	-10.3893
▁deeper	-10.3895
▁एतत्	-10.3902
गत	-10.3908
▁नाववत	-10.3909
▁प्रिया	-10.3912
▁झुक	-10.3913
▁५७	-10.3913
▁app	-10.3914
▁sees	-10.3917
▁सुनंदा	-10.3925
offering	-10.3925
intelligent	-10.3927
कर्म	-10.393
▁bhool	-10.3932
िंग	-10.3932
सुख	-10.3935
▁बड़ी	-10.3935
▁ultimate	-10.3937
void	-10.3937
▁senses	-10.3937
▁तारक	-10.3938
▁तदु	-10.3942
▁performs	-10.3944
▁तस्मिन्	-10.3952
so	-10.3955
▁बाई	-10.3955
ारं	-10.3955
कत	-10.3957
▁learn	-10.3967
▁road	-10.3968
Brahman	-10.397
▁12	-10.3971
▁झुद्ध	-10.3971
▁Kaise	-10.3983
▁सर्वं	-10.3983
▁care	-10.3987
▁mountains	-10.3989
▁मुख	-10.3992
भ्यो	-10.3998
▁लिङ्ग	-10.4008
▁external	-10.401
▁near	-10.4011
▁shaadi	-10.4013
▁रथ	-10.4013
▁Awww	-10.4013
णे	-10.4022
▁वस्तु	-10.4023
ीय	-10.4023
ओ	-10.4029
यम	-10.403
▁शुद्ध	-10.403
ful	-10.4035
▁After	-10.4041
▁took	-10.4052
▁creating	-10.4053
▁simply	-10.4053
▁classical	-10.4054
▁2/	-10.4055
▁तपः	-10.4058
▁यहाँ	-10.406
yon	-10.4072
▁whereby	-10.4075
▁पक्ष	-10.408
▁Wo	-10.4085
▁season	-10.4086
▁लेने	-10.4088
▁bachpan	-10.4094
▁fascinating	-10.4094
▁अग्नि	-10.4099
▁देहे	-10.4103
▁०	-10.4105
▁पूरी	-10.4105
▁fear	-10.411
द्ध	-10.4122
they	-10.4128
▁शोक	-10.4134
010.	-10.4138
much	-10.4143
▁wealth	-10.4144
▁भवत्य	-10.4151
ष्ठ	-10.4153
दार	-10.4164
न्द	-10.4169
▁सिद्धि	-10.417
▁views	-10.4171
▁कुतः	-10.4174
▁wisdom	-10.4176
▁deny	-10.4176
▁Yeah	-10.4176
शक्ति	-10.4178
▁उनसे	-10.4178
▁श्रद्धा	-10.4195
▁obtained	-10.4196
▁cherish	-10.4203
▁replies	-10.4217
▁गन्ध	-10.4225
▁दक्षिणा	-10.4228
▁६३	-10.4229
11.	-10.4234
▁seat	-10.4237
▁दिव्य	-10.424
ुः	-10.4242
मयं	-10.4245
▁तुम्हारी	-10.425
▁group	-10.4255
▁natural	-10.4256
34)	-10.4256
▁age	-10.4256
▁mat	-10.4256
ाङ्ग	-10.4258
ana	-10.4258
▁popular	-10.4259
▁विचार	-10.4261
▁वास	-10.4262
▁expression	-10.4264
▁स्त्री	-10.4264
▁विना	-10.4267
▁तिष्ठ	-10.4273
▁wohi	-10.4275
▁मान	-10.428
््‍	-10.4281
दर	-10.4283
▁guide	-10.4288
ब्रह्म	-10.429
▁lay	-10.4292
▁पड़	-10.4303
▁झु	-10.4305
▁Tujh	-10.4306
▁pours	-10.4313
▁line	-10.4331
▁एषा	-10.4333
▁24	-10.4335
▁opinion	-10.4339
▁cheesy	-10.4341
▁doing	-10.4342
विद्या	-10.4349
▁denote	-10.435
▁karo	-10.4353
ance	-10.4354
▁मित्र	-10.4358
▁Kal	-10.4359
▁भजे	-10.4362
▁open	-10.4363
▁नवम	-10.4365
पात	-10.4367
▁vision	-10.4369
▁awareness	-10.4369
रत	-10.4369
▁६४	-10.4375
▁embodied	-10.4375
रुद्रः	-10.4375
▁dekhi	-10.4376
ङ्कार	-10.4376
▁feet	-10.4377
त्म	-10.4377
वती	-10.4379
▁wood	-10.4379
बि	-10.4385
▁subtle	-10.439
▁कण्ठ	-10.4392
we	-10.4392
▁रहने	-10.4394
्युपनिषत्	-10.4396
▁pyaari	-10.441
▁सर्वस्य	-10.4413
▁milke	-10.4413
▁powerful	-10.4414
▁balance	-10.4417
▁स्थिता	-10.4423
▁happiness	-10.4426
▁wishes	-10.4427
▁dena	-10.4431
▁spring	-10.4439
ीं	-10.444
▁अथवा	-10.4442
▁11	-10.4451
earth	-10.4452
 2,	-10.4454
ाच	-10.4457
▁नः	-10.446
▁व्यान	-10.446
▁तपो	-10.4461
▁ऋ	-10.4462
यन्ते	-10.4464
▁दीदी	-10.4466
▁specific	-10.4467
मनु	-10.4467
▁politics	-10.4468
▁foundation	-10.4468
ha	-10.4477
▁पति	-10.4483
▁designs	-10.449
▁sides	-10.4498
fire	-10.4502
▁project	-10.4502
..............	-10.4506
कम	-10.4506
▁शिवः	-10.4508
▁chief	-10.451
▁effected	-10.452
▁बल्कि	-10.4532
▁girl	-10.4534
▁मात्र	-10.4536
ानन्द	-10.4544
▁करे	-10.4552
▁respect	-10.4552
▁immortality	-10.4553
 2.	-10.4554
▁yourself	-10.4554
▁कुंती	-10.4556
▁enjoined	-10.4562
▁perhaps	-10.4572
▁पहल	-10.4578
▁mental	-10.4579
पाद	-10.4581
▁देवं	-10.4589
▁memory	-10.4595
▁delicious	-10.4595
▁wow	-10.4595
▁busy	-10.4596
▁young	-10.4601
Here	-10.4606
▁केवलं	-10.4611
...."	-10.4612
▁होकर	-10.4615
▁eight	-10.4616
▁कमर	-10.462
▁स्वामी	-10.4625
▁बाल	-10.4625
111.	-10.4632
▁size	-10.4639
▁myself	-10.464
▁बे	-10.4641
▁belonging	-10.4664
▁पाई	-10.4664
▁8.	-10.4665
गुण	-10.4666
▁देता	-10.4667
▁ब्र	-10.467
न्नं	-10.4671
▁lower	-10.4676
▁IX	-10.4677
▁दृ	-10.4679
▁few	-10.4681
▁intezaar	-10.4681
रेव	-10.4685
▁began	-10.4686
प्सु	-10.469
▁मुक्ति	-10.4694
ित्वा	-10.4699
▁अहो	-10.4701
▁16	-10.4705
यों	-10.4714
▁Even	-10.4714
▁दान	-10.4718
▁जिह्वा	-10.472
▁अध	-10.4722
▁अयं	-10.4725
▁philosophy	-10.4729
ाप	-10.4739
▁Rik	-10.4746
▁limited	-10.4751
N	-10.4753
▁obtain	-10.4753
▁अह्म	-10.4765
▁jayenge	-10.4768
▁ekdum	-10.477
▁sap	-10.4777
▁admitted	-10.4785
▁सः	-10.4786
▁darkness	-10.4794
▁५१	-10.4797
▁५२	-10.48
धो	-10.4802
▁shared	-10.4807
▁रुद्रो	-10.4808
▁independent	-10.4811
▁jis	-10.4811
▁spot	-10.4811
▁children	-10.4812
▁yahi	-10.4819
▁अप	-10.4819
ma	-10.482
स्तं	-10.4822
▁bare	-10.4822
▁इह	-10.4822
▁वेद्	-10.4829
▁माध्यम	-10.4829
▁kuchh	-10.4839
▁watch	-10.4844
▁deal	-10.4852
वाद	-10.4855
▁laughter	-10.4856
6	-10.4859
all	-10.486
▁14	-10.4865
▁seek	-10.4865
▁mine	-10.4865
5	-10.4867
▁accept	-10.4867
."	-10.4881
ers	-10.4882
▁talk	-10.4883
शि	-10.4885
ुपनिषत्सु	-10.4891
सम	-10.4893
▁जानाति	-10.4894
▁भवतीति	-10.4899
बा	-10.4899
▁Yet	-10.4905
▁poor	-10.491
त्स	-10.4916
मस्य	-10.4917
Soma	-10.4917
▁उठ	-10.4918
▁तद्व	-10.4919
▁पल	-10.4933
▁चला	-10.4938
न्या	-10.4945
▁तेरे	-10.4948
▁देते	-10.4949
▁ride	-10.4953
लोक	-10.4954
रौ	-10.4957
्री	-10.4958
▁electric	-10.496
▁भूमि	-10.4962
यै	-10.4965
part	-10.4966
▁साहित्य	-10.4967
▁section	-10.4967
ताम्	-10.497
il	-10.4981
▁इसके	-10.4987
▁everyone	-10.499
▁गर्भ	-10.4994
▁पत्र	-10.5003
▁clear	-10.5006
जो	-10.5009
▁भूमिका	-10.501
हो	-10.5014
▁चिना	-10.5015
▁हत	-10.5017
मल	-10.5022
▁prove	-10.5022
▁५३	-10.5023
▁आश्रम	-10.5029
▁came	-10.5031
▁[1890]	-10.5033
▁sukoon	-10.5033
▁sundar	-10.5033
▁जाएगा	-10.5034
तुम	-10.5034
▁Rakshas	-10.5035
ान्त	-10.5035
माह	-10.504
▁श्रुत	-10.5043
▁started	-10.5044
▁विधि	-10.5046
पन	-10.5054
णां	-10.5057
fold	-10.5059
▁desires	-10.5063
युः	-10.5065
▁spread	-10.5078
▁interpretation	-10.5078
▁उत्पन्न	-10.5078
▁directly	-10.5081
▁choose	-10.5081
▁fir	-10.5087
▁bright	-10.5089
▁भारत	-10.5094
थे	-10.5105
▁नहि	-10.5107
▁Vâyu	-10.512
▁characters	-10.5121
yâ	-10.5123
▁lena	-10.5128
▁My	-10.5128
▁४९	-10.5164
▁happy	-10.5168
▁Jab	-10.517
▁Like	-10.517
द्वा	-10.5175
▁horse	-10.5177
▁गच्छ	-10.5178
▁पी	-10.5185
▁हों	-10.5185
भे	-10.5186
पनिषत्सु	-10.5187
▁व्यवहार	-10.5191
ास	-10.5192
▁ट	-10.5204
▁attribute	-10.5207
▁स्वस्ति	-10.5209
▁stay	-10.521
▁पीठ	-10.5213
▁Hamesha	-10.5213
▁capable	-10.5213
1212.	-10.5214
▁drawn	-10.5215
As	-10.5216
मादाय	-10.5222
▁gone	-10.5225
sam	-10.5232
▁proper	-10.5237
▁kinds	-10.5243
▁fourth	-10.5252
▁इच्छा	-10.5252
काम	-10.5258
र्ष	-10.5259
▁इतनी	-10.5259
um	-10.526
ेर	-10.5263
्यां	-10.5264
▁इतना	-10.5265
▁Those	-10.527
▁साक्षी	-10.5275
▁Yoga	-10.528
▁येषां	-10.5282
▁Asuras	-10.5284
▁close	-10.5287
▁festivals	-10.5288
▁cut	-10.529
313.	-10.5294
पान	-10.5298
▁संन्यास	-10.5299
वह	-10.5302
▁सुक्त	-10.5305
▁gaane	-10.5306
▁beat	-10.5306
▁Meri	-10.5306
▁yaadein	-10.5307
▁सावित्री	-10.5309
aane	-10.5312
ास्	-10.5312
ाम	-10.5314
▁६६	-10.5317
देश	-10.5321
▁अभि	-10.5322
▁जवाब	-10.5323
▁rule	-10.5324
▁15	-10.5328
▁७२	-10.5332
▁success	-10.5334
▁कर्णेभि	-10.5342
difference	-10.5343
▁proof	-10.5343
▁हरि	-10.5348
ch	-10.5348
▁fit	-10.5349
offerings	-10.5353
हट	-10.5355
▁देती	-10.5359
▁cases	-10.5362
1.	-10.5368
ाकाश	-10.5368
▁व्योम	-10.5369
ध्य	-10.5371
सुपास	-10.5374
ात्मक	-10.5382
ितः	-10.5384
▁Mitra	-10.5388
▁regions	-10.539
▁ऊर्ध्व	-10.5397
▁planning	-10.5398
▁इत्युपनिषत्	-10.5399
२७	-10.5401
▁saal	-10.5403
▁aayi	-10.5411
▁अहम्	-10.5415
▁office	-10.5416
स्त्वं	-10.5418
▁reading	-10.5422
▁यस्मिन्	-10.5423
र्क	-10.5432
▁process	-10.5439
Mu	-10.5443
▁भगवन्त	-10.5444
Pop	-10.5444
▁सिर्फ	-10.5445
ची	-10.5445
▁तस्याः	-10.5447
▁स्वर्ग	-10.5451
▁उद	-10.5453
▁thik	-10.5453
▁||	-10.5455
मुच्यते	-10.5455
ट्	-10.5459
▁वर	-10.5461
लिङ्ग	-10.5465
▁possess	-10.5465
▁गईं	-10.5468
▁जीवो	-10.5471
प्यति	-10.5471
▁षोडश	-10.5472
▁तानि	-10.5477
▁c	-10.5477
▁प्राणे	-10.5479
▁grow	-10.548
▁साल	-10.548
▁got	-10.5481
ास्मि	-10.5483
';	-10.5485
▁trust	-10.5486
स्त्र	-10.5487
▁previous	-10.5488
▁बंद	-10.549
▁funny	-10.5491
▁छाया	-10.5491
▁Hamar	-10.5492
▁explanation	-10.5492
▁milkar	-10.5493
▁परम्	-10.5498
▁worship	-10.5499
Taitt	-10.55
▁गत्वा	-10.55
ायां	-10.55
▁माँ	-10.5508
▁तस्	-10.5509
रन	-10.551
▁speaks	-10.551
▁जि	-10.5524
 3	-10.5525
▁phone	-10.5536
ga	-10.5537
▁causal	-10.5537
▁sometime	-10.5542
▁parents	-10.5543
▁looked	-10.5545
From	-10.555
▁आस	-10.5551
▁पूछ	-10.5551
▁ऐसे	-10.5563
ानु	-10.5565
▁hymn	-10.5567
▁flirt	-10.5573
On	-10.5573
▁िा	-10.5573
▁less	-10.5573
▁bond	-10.5577
If	-10.5579
▁पृथिवी	-10.5585
▁spicy	-10.5585
un	-10.5586
राम	-10.5586
▁Accha	-10.5587
▁restaurant	-10.5587
▁clearly	-10.5588
▁An	-10.5599
▁consecrated	-10.56
▁प्रवेश	-10.5601
▁एतदेव	-10.5602
▁नियम	-10.5608
कल	-10.5608
ऽथ	-10.5612
▁previously	-10.5619
▁9	-10.562
▁represents	-10.5621
▁relationship	-10.5636
▁described	-10.5636
▁atoms	-10.5641
▁न्	-10.5647
▁aside	-10.565
▁depend	-10.565
▁lagi	-10.5654
▁trees	-10.5658
▁mantra	-10.5661
▁ruler	-10.5669
▁सीता	-10.567
्‍्	-10.5676
ous	-10.5677
▁बदल	-10.5677
▁धीमहि	-10.568
▁impressive	-10.568
▁सदाशिव	-10.568
▁supreme	-10.5681
▁७६	-10.5691
There	-10.5693
वति	-10.5696
▁uss	-10.5699
light	-10.5701
▁17	-10.5704
414.	-10.5712
▁महान	-10.5713
ि्	-10.5721
).--	-10.5722
▁potential	-10.5727
▁intricate	-10.5728
▁Letter	-10.5729
▁observed	-10.5735
▁tips	-10.5748
वद	-10.5749
▁िे	-10.5749
▁control	-10.5757
▁आधार	-10.5759
▁mother	-10.5762
णी	-10.5763
▁offerings	-10.5766
▁libation	-10.5767
▁श्रेष्ठ	-10.5772
▁Iss	-10.5774
▁told	-10.5776
▁शरण	-10.5778
योग	-10.5782
▁sat	-10.5786
▁20	-10.579
▁सू	-10.5791
ड्	-10.5791
▁inside	-10.5791
▁stop	-10.5801
▁original	-10.5802
▁standing	-10.5817
तृ	-10.582
▁भगवते	-10.5821
▁आभूषण	-10.5822
▁opportunities	-10.5824
▁ourselves	-10.5824
▁weight	-10.5826
▁across	-10.5828
▁जानते	-10.5831
▁reasoning	-10.5834
▁greater	-10.5837
▁explain	-10.5839
▁subsequent	-10.5843
▁notes	-10.5845
nâ	-10.5849
▁roots	-10.5855
▁चर	-10.5856
ेते	-10.5856
▁equal	-10.5856
▁वायुः	-10.5865
▁बहिः	-10.5871
▁tough	-10.5873
▁unke	-10.5874
▁recently	-10.5874
▁refreshing	-10.5874
व्	-10.5878
▁दें	-10.5883
bricks	-10.5884
न्तः	-10.5887
ak	-10.5889
▁thinks	-10.589
▁चिन्मात्र	-10.5891
▁नीलम्मा	-10.5891
▁रखा	-10.5892
▁दिवा	-10.5895
▁वेदा	-10.5896
▁calls	-10.59
Mar	-10.5901
▁बुद्ध	-10.5906
रों	-10.5907
▁धारणा	-10.591
▁कर्ता	-10.5913
R	-10.5914
da	-10.5916
▁naye	-10.5926
▁Dignāga	-10.5926
▁्‍	-10.5927
▁jana	-10.593
▁अंत	-10.5932
ग्	-10.5933
▁n	-10.5935
▁सुव	-10.5938
▁चिर	-10.5943
वद्	-10.5961
मेन	-10.5962
▁approach	-10.5962
▁सुने	-10.5965
▁Rajnikanth	-10.597
▁Darjeeling	-10.597
▁padega	-10.597
▁५९	-10.5972
▁चिंता	-10.5972
▁temple	-10.5975
▁तन्मध्ये	-10.5978
▁धन	-10.5982
र्व	-10.5983
▁माम्	-10.5986
▁प्रत्यक्ष	-10.5987
▁जीवन्सुक्त	-10.5987
▁wise	-10.5994
▁universal	-10.5996
▁inspiring	-10.5998
▁बैठी	-10.5998
▁सती	-10.5998
▁values	-10.5999
▁पकड़	-10.6
▁६१	-10.6002
▁origin	-10.601
▁pa	-10.6013
▁depends	-10.6016
▁relationships	-10.6016
▁ममता	-10.6017
▁months	-10.6018
▁बेटी	-10.6018
▁accepted	-10.6025
▁mada	-10.6025
जे	-10.6026
ach	-10.6029
▁भोग	-10.6031
▁mode	-10.6031
ाद्य	-10.6031
▁kho	-10.6032
▁constitute	-10.6046
D	-10.6052
▁सत्यकाम	-10.6055
▁ग्राण	-10.6057
▁रंग	-10.6058
di	-10.6059
ion	-10.6068
▁Jaipur	-10.6069
▁mausam	-10.6069
▁पार्वती	-10.6069
▁नारद	-10.607
▁therewith	-10.6073
▁प्रज्ञा	-10.608
▁यद्य	-10.6089
दोष	-10.609
▁determination	-10.6102
▁कुरुते	-10.6103
▁protect	-10.6104
▁released	-10.6113
▁शाख	-10.6115
▁Arre	-10.6117
▁double	-10.6119
▁mention	-10.612
च्छ	-10.612
With	-10.6121
▁big	-10.6123
▁brick	-10.6124
▁progress	-10.6126
में	-10.6127
▁doosr	-10.613
ye	-10.614
▁पुनर	-10.6142
ish	-10.6147
▁quoted	-10.615
▁रेत	-10.6152
▁zarur	-10.6157
रूपिणी	-10.6157
!'--'	-10.6166
▁suggest	-10.6169
▁Bohot	-10.6169
▁tech	-10.6169
▁कथ्यते	-10.6171
▁likewise	-10.6172
▁इत्यर्थः	-10.6174
▁banana	-10.6174
ेदं	-10.6175
▁मध्य	-10.6176
▁analogous	-10.6178
ेनेव	-10.6181
▁sapno	-10.6183
यामि	-10.6183
jati	-10.6183
यत	-10.6184
वार	-10.6184
▁कहाँ	-10.6185
▁तेज	-10.6187
थो	-10.6191
पे	-10.6192
ञ्ज	-10.6194
ळा	-10.6196
▁performances	-10.6196
▁अपान	-10.6209
▁स्थिर	-10.6213
घर	-10.6219
▁adventurous	-10.6219
स्मे	-10.6221
▁मजदूर	-10.6223
१२	-10.6224
▁नेत्र	-10.6226
▁ऋषय	-10.6226
sa	-10.6228
▁valid	-10.6231
▁गति	-10.6234
मः	-10.6246
▁वेदांत	-10.625
▁चिश्व	-10.6255
▁garden	-10.6258
▁हस्त	-10.6268
▁identity	-10.627
▁picnic	-10.627
▁atmosphere	-10.6271
▁प्रचोदयात्	-10.6271
▁इत्यादिना	-10.6272
▁पसंद	-10.6273
▁challenging	-10.6275
▁suggestion	-10.6276
▁short	-10.6282
▁नाना	-10.6284
ेषा	-10.6285
▁बा	-10.6295
▁Gâyatrî	-10.6296
▁सद	-10.6298
▁fail	-10.6298
कू	-10.6298
जत	-10.6301
▁जान	-10.6301
▁adds	-10.631
ेद	-10.631
▁गृह	-10.6318
▁५६	-10.6322
▁possesses	-10.6324
▁विश्वास	-10.6326
▁monsoon	-10.6326
▁अय	-10.6335
▁reverence	-10.6336
▁चैव	-10.6337
▁निर्	-10.6341
▁६२	-10.6342
▁हर्षा	-10.6348
▁भूर्भुवः	-10.6349
▁reasons	-10.6351
▁acts	-10.6353
▁बाह्य	-10.6369
▁वीर	-10.6369
▁move	-10.6371
▁folk	-10.6371
▁kyun	-10.6371
पो	-10.6375
▁occasion	-10.6376
▁topics	-10.638
ज्ञा	-10.6386
▁भद्र	-10.639
▁endless	-10.6408
▁पि	-10.6408
▁adventures	-10.6411
▁प्रयोग	-10.6416
जल	-10.642
▁infer	-10.6421
▁fantastic	-10.6423
स्तत्र	-10.6423
▁सहज	-10.6423
▁embark	-10.6423
▁वपु	-10.6423
यात्	-10.6423
▁जाएगी	-10.6423
ादिक	-10.6425
▁limiting	-10.6426
▁७५	-10.643
▁ठु	-10.643
▁वायो	-10.6435
धे	-10.6438
26)	-10.6444
▁kaun	-10.6444
▁leads	-10.6449
▁बभूव	-10.6455
▁fast	-10.6456
१३	-10.6457
▁पिण्ड	-10.6458
▁W	-10.646
▁becoming	-10.646
▁Do	-10.6464
सर्व	-10.6465
▁दस	-10.6466
▁सनातन	-10.6467
▁absolute	-10.6471
मानं	-10.6472
▁alawa	-10.6474
▁speaking	-10.648
▁rakhna	-10.648
मै	-10.6481
▁dialogue	-10.6481
▁स्मृत	-10.6484
छे	-10.6493
▁girlfriend	-10.6494
१०	-10.6495
▁waiting	-10.6495
▁सुर	-10.6508
▁tea	-10.6512
ञ्य	-10.6512
▁विज्ञात	-10.6513
मेक	-10.6514
▁perceived	-10.6516
▁proud	-10.6526
▁मंदिर	-10.6526
रेण	-10.653
▁जगत	-10.6532
▁club	-10.6533
सीति	-10.6535
▁Punjabi	-10.6536
▁leaves	-10.6539
ोति	-10.6539
▁स्पष्ट	-10.6541
तू	-10.6543
सय	-10.6544
वास	-10.6547
ेषां	-10.6553
काल	-10.6554
▁६९	-10.6556
ोऽथ	-10.6559
▁maintains	-10.6562
▁समाधि	-10.6567
▁किए	-10.6569
▁क्	-10.6571
▁व्या	-10.6572
▁इवत	-10.6578
▁पञ्चमाध्याये	-10.6578
515.	-10.6579
▁वदन्ति	-10.6579
▁passionate	-10.6579
▁news	-10.6579
ान्तर	-10.658
▁enjoyment	-10.6582
▁creativity	-10.6584
▁अनसूया	-10.6585
▁cups	-10.6588
▁infinite	-10.6591
▁६८	-10.6592
▁५८	-10.6597
▁दण्ड	-10.6599
▁kab	-10.6604
▁Hmmm	-10.6606
येति	-10.6607
आप	-10.6615
▁पादो	-10.6617
▁होचाच	-10.6621
▁भगवान्यश्च	-10.6622
्यः	-10.6623
M	-10.6624
▁attend	-10.6625
ात्त	-10.6628
▁market	-10.6628
▁pressure	-10.663
▁settled	-10.6632
▁नाश	-10.6632
हु	-10.6633
धार	-10.6634
▁सविता	-10.6636
▁शा	-10.6641
पूर्वक	-10.6642
▁तम	-10.6645
▁खुद	-10.6647
ेत्य	-10.6647
▁वद	-10.6648
▁dish	-10.6649
कार्य	-10.665
▁हमेशा	-10.6651
▁स्वं	-10.6669
▁अस्पताल	-10.6672
▁संशय	-10.6676
▁सति	-10.6677
▁9,	-10.6678
▁वरुण	-10.6682
▁ध्यात्वा	-10.6684
▁closer	-10.6685
▁farmers	-10.6688
▁Yagus	-10.6689
▁चाहता	-10.6689
▁uski	-10.669
वश	-10.669
▁13.	-10.6691
▁region	-10.6693
कारं	-10.6702
▁युग	-10.6703
▁तावत्	-10.6709
▁jeet	-10.6709
▁मरण	-10.6712
भ््‍	-10.6717
▁कब	-10.6717
▁position	-10.6718
▁घट	-10.6722
स्म्यहम्	-10.6732
▁cream	-10.6734
▁भावना	-10.6734
▁colour	-10.6735
▁eat	-10.6736
योनि	-10.6736
▁ice	-10.6736
▁ब्रह्मचर्य	-10.6737
▁आपकी	-10.6737
▁बह	-10.6738
▁points	-10.6741
▁socht	-10.6741
स्मीति	-10.6742
▁session	-10.6745
ut	-10.6745
▁खेचरी	-10.6751
▁इसी	-10.6767
▁हमारी	-10.6767
▁aate	-10.6774
१४	-10.6776
So	-10.6785
▁English	-10.6789
▁संवत्सर	-10.6789
▁chalogi	-10.679
▁rehte	-10.679
ीव	-10.679
▁naturally	-10.6791
âna	-10.6791
▁अतः	-10.6791
▁सत्त्व	-10.6795
▁milna	-10.6795
▁uske	-10.6797
जया	-10.68
▁अनन्त	-10.6802
▁पढ़	-10.6804
▁भाग	-10.6808
▁bitana	-10.6811
▁पुत	-10.6811
्ये	-10.6812
▁यं	-10.6812
▁fresh	-10.6821
▁सततं	-10.6823
▁instead	-10.6824
▁conquer	-10.683
द्वय	-10.6832
▁park	-10.6832
▁तर्क	-10.6836
▁चक्षु	-10.6839
there	-10.6839
▁theory	-10.6842
.....	-10.6842
▁लक्ष्य	-10.6842
▁ऋत	-10.6847
▁alive	-10.6847
▁chalo	-10.6849
▁reduce	-10.6855
▁purport	-10.6858
ास्ते	-10.6859
▁religious	-10.6859
▁स्या	-10.686
▁internal	-10.6861
▁thereon	-10.6863
▁black	-10.6864
▁अज	-10.6864
▁७१	-10.6865
▁Mr	-10.6868
▁R	-10.6869
▁माता	-10.6878
▁सूत्र	-10.688
ढ	-10.6881
ञ्ञ	-10.6881
▁कतम	-10.6883
▁conscious	-10.6885
▁hair	-10.6887
▁aim	-10.6889
▁अध्यायः	-10.6895
▁audience	-10.6896
▁क्र	-10.6897
▁witness	-10.6898
▁आंखों	-10.6898
▁नाद	-10.6899
▁teachers	-10.6899
▁अध्या	-10.6903
▁हु	-10.6905
़	-10.6906
▁whilst	-10.6912
र्त	-10.6914
▁22	-10.6917
मह	-10.692
▁jaaye	-10.6922
ा्‍	-10.6923
▁दीप	-10.6927
द्वार	-10.6928
▁field	-10.693
shish	-10.6934
▁classes	-10.6937
एं	-10.6939
▁improve	-10.6942
▁fall	-10.6943
▁सहसा	-10.6944
▁कया	-10.695
▁महिला	-10.695
▁significance	-10.6951
▁enjoying	-10.6953
▁chala	-10.6953
चं	-10.6954
स्म	-10.6954
▁produce	-10.6954
existence	-10.6955
▁आपने	-10.6956
▁contradiction	-10.696
▁cuisine	-10.696
▁immediate	-10.6961
▁priest	-10.6964
▁acting	-10.697
वम	-10.6973
▁based	-10.698
▁Tales	-10.698
▁yehi	-10.6984
▁बैठे	-10.6985
▁श्रीराम	-10.6994
▁suggestions	-10.6998
▁यहां	-10.7
getting	-10.7001
▁भूल	-10.7003
▁gym	-10.7005
▁भांति	-10.7005
▁jayegi	-10.7005
see	-10.7006
▁UPI	-10.7006
E	-10.7007
▁fore	-10.7012
When	-10.7013
▁naam	-10.7017
▁victim	-10.7017
सै	-10.7018
▁मार्ग	-10.702
▁त्वय	-10.7021
सिति	-10.7023
▁इं	-10.7026
▁able	-10.7028
▁बोला	-10.7031
रति	-10.7033
धर्म	-10.7037
िनः	-10.7037
▁हंसः	-10.7038
▁तय	-10.7042
मानि	-10.7042
pa	-10.7043
स्ता	-10.7049
▁remain	-10.7056
शु	-10.7064
ैर	-10.7075
nayi	-10.7076
▁शिष्य	-10.708
▁मुंबई	-10.708
नाय	-10.7083
▁yours	-10.7084
▁haath	-10.7087
▁किल	-10.7087
▁19	-10.7098
ाया	-10.7108
परो	-10.711
खि	-10.7112
▁chance	-10.7115
▁विदुः	-10.7115
▁होंगे	-10.7118
ive	-10.7123
▁भिन्न	-10.7125
▁उमा	-10.7127
▁faith	-10.7128
▁vehicles	-10.7129
बन्ध	-10.7131
▁पुष	-10.7133
▁कई	-10.7134
रस	-10.7141
▁offspring	-10.7147
▁aaye	-10.715
▁नाग	-10.715
▁observe	-10.7156
भ्यां	-10.7157
सुप	-10.7157
न्तु	-10.7157
▁fifth	-10.7158
त्री	-10.7163
▁permanent	-10.7164
▁अच्छा	-10.7169
देवता	-10.7169
भग	-10.717
▁forest	-10.7174
▁issues	-10.7193
▁द्	-10.7193
ge	-10.7195
ेष्व	-10.7196
मेवास्तमेति	-10.7197
िना	-10.7198
▁स्र	-10.7201
▁खं	-10.7205
टे	-10.7205
त्सु	-10.7211
▁सुनि	-10.7212
कर्मणि	-10.7215
▁pura	-10.7218
▁प्राप	-10.7219
▁पुर	-10.7222
▁निज	-10.7224
616.	-10.7226
▁obtains	-10.7226
▁साधक	-10.7227
▁Arey	-10.7227
▁karoge	-10.7229
जन	-10.7231
▁यतो	-10.7231
▁answer	-10.7232
▁यत	-10.7235
▁aggregate	-10.7236
▁generation	-10.7237
▁हुत्वा	-10.7237
▁ज्योतिर	-10.7238
त्येव	-10.7238
▁बोल	-10.7239
▁ways	-10.724
▁आता	-10.7241
▁अथा	-10.7243
श्य	-10.7243
मयी	-10.7244
▁bhari	-10.7244
▁सही	-10.7245
▁पाया	-10.725
▁Where	-10.7255
न्म	-10.7261
टा	-10.7263
▁moving	-10.7265
▁प्	-10.727
ā	-10.727
▁vidyâs	-10.7272
▁embrace	-10.7273
▁खींच	-10.7273
▁सामान्य	-10.7273
▁सप्तम	-10.7276
▁vidyâ	-10.7278
▁wrong	-10.7278
▁false	-10.7282
▁बहुधा	-10.7285
▁pre	-10.7286
▁add	-10.7292
ादीनां	-10.7293
▁arms	-10.7295
▁assumed	-10.7297
▁वसन्त	-10.7297
▁तुम्हारा	-10.7301
माया	-10.7304
ंड	-10.7306
▁स्वयमेव	-10.731
▁खाने	-10.7314
▁६५	-10.7315
▁qualified	-10.7318
कृत	-10.732
द्या	-10.7328
▁Ohh	-10.7333
▁दृष्टा	-10.7336
▁grateful	-10.7337
▁comedy	-10.7337
▁mazedaar	-10.7337
▁भेंट	-10.7338
▁6.	-10.7338
▁totally	-10.7339
▁meditate	-10.7341
चार	-10.7344
▁lines	-10.7344
▁भववत	-10.7345
▁तयो	-10.7348
▁वेराग्य	-10.7349
▁leave	-10.7349
▁शेषः	-10.7353
मर	-10.7354
▁आसीत्	-10.7355
▁तर	-10.7356
ूत	-10.7356
▁शाम	-10.7358
▁अर	-10.7369
▁बोले	-10.7375
२३	-10.7376
▁अरे	-10.7381
▁कदाचन	-10.7382
▁त्र	-10.7388
▁कठिन	-10.7391
खड़े	-10.7394
▁dishes	-10.7397
▁drive	-10.7401
▁एवा	-10.7403
ोच्यते	-10.7406
▁dekht	-10.7407
झो	-10.7408
▁ceremony	-10.7412
▁आते	-10.7412
▁ण	-10.7413
िल	-10.7417
▁५४	-10.7422
द्धि	-10.7427
विशेष	-10.7428
▁भगवान्य	-10.7434
▁peace	-10.7446
▁गिर	-10.7448
▁परस्पर	-10.7448
याः	-10.7451
▁healthcare	-10.7451
▁डाक्टर	-10.7451
▁carried	-10.7451
ein	-10.7452
▁kahin	-10.7452
▁rules	-10.7454
वल	-10.7462
▁flirting	-10.7462
▁isn	-10.7465
भ्यः	-10.7466
रम्	-10.7469
समा	-10.7475
▁५५	-10.7475
▁Fire	-10.748
▁innovations	-10.7484
▁एतद	-10.7487
▁manifest	-10.7487
ऽहं	-10.7504
▁विद्धि	-10.7507
▁अस	-10.7517
▁fully	-10.7529
शन	-10.7532
râ	-10.7542
▁broken	-10.7542
▁तपसा	-10.7545
▁नर	-10.7551
▁pani	-10.7557
▁चाह	-10.7558
▁तन्	-10.756
▁definite	-10.7562
▁digital	-10.7565
ीत	-10.7566
▁sapna	-10.7567
▁कंपनी	-10.7568
▁Are	-10.7575
TH	-10.7577
▁sports	-10.7577
▁मनसो	-10.7578
क्य	-10.758
▁तुमने	-10.7582
मात्मान	-10.7586
▁दौड़	-10.7587
▁वहां	-10.7596
▁व्यक्त	-10.7608
▁इयं	-10.7611
▁represent	-10.762
ad	-10.7622
uestion	-10.7623
▁pollution	-10.7623
▁बच्चे	-10.7623
▁शक्तिः	-10.7624
्ष	-10.7627
▁9.	-10.7633
शी	-10.7634
्ट	-10.7634
म्य	-10.7637
▁assumption	-10.7637
▁वक्त	-10.764
▁fathers	-10.7641
▁interests	-10.7641
▁गतः	-10.7643
घु	-10.7644
▁students	-10.7644
▁thirty	-10.7645
▁प्राज्ञ	-10.7649
▁पड़े	-10.7652
मां	-10.7653
▁Sâman	-10.7658
टी	-10.7672
matter	-10.7676
▁impress	-10.7676
▁सवाल	-10.7677
▁kamaal	-10.7681
sh	-10.7682
......	-10.7682
▁Maruts	-10.7683
▁बहा	-10.7686
▁architecture	-10.7688
▁जप	-10.7696
moon	-10.7697
▁trying	-10.7702
१७	-10.7719
ेत्यर्थः	-10.7725
ियां	-10.7728
▁चले	-10.773
मनन्त	-10.7732
ाहं	-10.7733
योगिनः	-10.7735
may	-10.7736
▁serious	-10.7737
मित्यर्थः	-10.7738
▁Answer	-10.774
▁Sanskrit	-10.774
▁अंतिम	-10.774
▁setting	-10.7741
2.	-10.7741
ir	-10.7747
place	-10.7747
▁adjuncts	-10.7748
▁content	-10.7749
▁Her	-10.7754
कु	-10.7755
▁achieve	-10.7756
▁ऽ	-10.7759
▁pehl	-10.7762
ाकार	-10.7781
▁शून्य	-10.7783
▁Done	-10.7791
ाकारं	-10.7796
▁difficult	-10.7796
▁dancing	-10.7798
▁knew	-10.7798
▁trekking	-10.7799
▁lagega	-10.7799
▁भि	-10.78
▁filmy	-10.78
▁unka	-10.78
▁याद	-10.7802
िव	-10.7807
▁didn	-10.7809
▁यस्या	-10.7818
▁स्थूल	-10.7825
▁proceed	-10.7825
गतम्	-10.7829
▁growth	-10.783
▁किशोरी	-10.7831
▁layers	-10.7833
▁हाथों	-10.7834
▁८३	-10.7838
▁until	-10.7842
▁upwards	-10.7843
▁इसक	-10.7846
▁भग	-10.7846
line	-10.7851
▁ji	-10.7852
water	-10.7856
▁Fairy	-10.7858
▁27-	-10.7858
▁fitness	-10.7859
▁injure	-10.786
▁accomplished	-10.786
▁अहम	-10.7862
How	-10.7865
▁नमस्ते	-10.7869
क्ति	-10.787
▁दिखा	-10.787
त्यु	-10.787
▁प्रोत	-10.7871
All	-10.7873
▁तह	-10.7875
19	-10.7875
▁abiding	-10.788
▁Khan	-10.7887
▁immediately	-10.7887
▁बालक	-10.7888
▁आम	-10.7888
vidyâ	-10.7889
प्रद	-10.789
▁marks	-10.7891
▁ठ	-10.7894
▁वाक्	-10.7895
सर	-10.7899
▁vessel	-10.7906
▁परमेश्वर	-10.7908
▁नास	-10.7909
▁sin	-10.7912
▁विनाश	-10.7914
▁Western	-10.7917
▁Dinner	-10.7917
▁Holi	-10.7917
▁rehta	-10.7918
▁कस्मादुच्यते	-10.7919
▁jahan	-10.7919
▁someday	-10.7919
▁शनेः	-10.792
pi	-10.7921
▁सौभ	-10.7922
▁तस्मादुच्यते	-10.7924
sentient	-10.7925
▁arise	-10.793
▁गलत	-10.7939
▁Râmânuga	-10.7948
▁chale	-10.795
र्म	-10.7956
हितं	-10.7963
न्तो	-10.7966
▁स्वयम्	-10.7967
घा	-10.7969
्ति	-10.7971
▁पत्नी	-10.7972
▁मद	-10.7973
▁सस	-10.7973
▁plurality	-10.7977
▁development	-10.7978
▁भवे	-10.7979
▁वासुदेव	-10.799
▁Hindu	-10.7991
▁chalein	-10.7992
र्स	-10.7992
▁मदन	-10.7994
By	-10.7994
▁verily	-10.7996
▁पवित्र	-10.7996
).'	-10.7997
▁चेतन्य	-10.7998
जु	-10.8001
▁भविष्यति	-10.8003
▁unreal	-10.8004
▁अज्ञान	-10.8008
▁Prakriti	-10.8008
▁discover	-10.801
▁soil	-10.8012
कारी	-10.8013
जायत	-10.8015
▁26	-10.8017
▁union	-10.8021
▁स्वभाव	-10.8022
▁Vâg	-10.8029
▁birth	-10.8029
तरं	-10.8029
▁हरे	-10.8031
▁हजार	-10.8031
▁......	-10.8034
▁applied	-10.8037
▁आग	-10.8038
▁passes	-10.8039
सुवाच	-10.8042
▁सिद्धार्थ	-10.8042
▁interested	-10.8045
▁passed	-10.8045
▁Which	-10.8046
▁यज्ञोपवीत	-10.8047
▁injunctions	-10.8047
कारेण	-10.8049
▁12.	-10.8049
▁भगवो	-10.805
त्ति	-10.8052
पास	-10.8054
ory	-10.8056
▁उत्	-10.8057
▁मत्	-10.8059
▁stars	-10.8066
पूर्ण	-10.8067
▁मेज	-10.8075
▁begins	-10.8077
▁reflection	-10.808
▁यावत्	-10.8084
▁कर्माण	-10.8085
▁libations	-10.8092
▁अनेक	-10.8092
▁जैसी	-10.8098
▁reaches	-10.8099
▁apprehended	-10.81
ज्ञो	-10.8101
▁remark	-10.8109
▁resist	-10.8111
▁dessert	-10.8114
▁wanted	-10.8114
▁alternative	-10.8114
43)	-10.8116
ायेति	-10.8116
▁painting	-10.8117
▁वय	-10.8122
▁consider	-10.8126
▁रुक	-10.8131
▁white	-10.8131
▁पद्म	-10.8135
19.	-10.8138
पञ्च	-10.8143
▁कस्य	-10.8145
▁मुख्य	-10.8152
▁वैसे	-10.8155
▁simple	-10.8156
▁Kyun	-10.8159
▁beaches	-10.8161
▁निहित	-10.8162
▁race	-10.8165
रथ	-10.8166
▁hearts	-10.817
enge	-10.8171
▁महीने	-10.8175
▁collection	-10.8175
ज्ञः	-10.8177
▁प्राणायाम	-10.8183
▁परित्यज्य	-10.8202
▁hither	-10.8202
क्षा	-10.8206
▁10.	-10.8207
▁मि	-10.821
▁ध्येय	-10.8216
▁capture	-10.8217
▁smart	-10.8217
▁इन्द्रो	-10.8221
717	-10.8222
▁चाहती	-10.8223
▁पार्थ	-10.8225
गु	-10.823
▁deeds	-10.8236
▁turns	-10.8237
▁कर्ण	-10.8237
▁discussions	-10.8237
▁शाश्वत	-10.8239
▁Âgnîdhra	-10.8248
▁यस्	-10.8264
विभाति	-10.8266
▁treat	-10.8269
व्यं	-10.8272
▁केवल्य	-10.8274
▁होचु	-10.8275
▁८०	-10.8275
▁नान्य	-10.8277
▁यस्याः	-10.8282
▁तृतीयाध्याये	-10.8282
▁क्रोध	-10.8283
▁जानीते	-10.8283
▁unko	-10.8283
▁padta	-10.8284
▁shaam	-10.8284
▁rahegi	-10.8284
▁7.	-10.8289
▁पुनर्	-10.829
ोऽनुवाक	-10.8292
▁Aise	-10.8295
▁summer	-10.8297
▁देखने	-10.8307
म्र	-10.8312
▁चित्र	-10.8313
▁पत	-10.8314
▁मत्र	-10.8314
knowledge	-10.832
▁प्रत्य	-10.8322
यन्त	-10.8329
▁नाभि	-10.8331
▁कल्प	-10.8331
▁तमस	-10.8331
▁आण	-10.8334
▁Sânkhya	-10.8336
▁vo	-10.8337
न्द्र	-10.8338
▁Tagore	-10.8344
▁taught	-10.8344
▁fairy	-10.8345
▁उसमें	-10.8346
▁पञचमी	-10.8346
▁विश्वं	-10.8349
▁बद्ध	-10.8352
▁contained	-10.8352
▁build	-10.8352
▁मार	-10.8355
ध्यात्म	-10.8355
दृ	-10.8356
▁distinguished	-10.8358
▁अव्यक्त	-10.8359
मुक्त	-10.8361
ry	-10.8362
वस्था	-10.8362
पुत्र	-10.8366
रिव	-10.8367
बीज	-10.837
time	-10.837
▁21	-10.8371
▁दिशा	-10.8375
मत	-10.8376
▁परायण	-10.8376
▁pressing	-10.8379
▁पड़ा	-10.8385
स्तस्म	-10.8385
Pragâpati	-10.8386
ताः	-10.8391
खु	-10.8393
▁निकट	-10.8394
▁नदी	-10.8395
▁दत्त	-10.8396
मन्य	-10.8397
▁दिमाग	-10.8402
▁Tell	-10.8404
▁Mudgal	-10.8407
▁instruction	-10.8407
▁referring	-10.8407
▁threefold	-10.8407
लक्षण	-10.8415
▁बैठा	-10.8417
▁७९	-10.8417
▁पेट	-10.8418
श्न	-10.8423
▁stall	-10.8425
▁entering	-10.8426
tri	-10.8428
▁suffering	-10.8432
ृत	-10.8435
स्मा	-10.8436
▁wide	-10.8439
▁characteristic	-10.844
▁अगल	-10.8441
्य्	-10.8444
▁सुखम्	-10.8444
ुं	-10.845
+	-10.8454
▁वत्स	-10.8459
▁जरा	-10.8462
ाने	-10.8462
▁बोध	-10.8465
▁fundamental	-10.8467
▁समाहित	-10.8469
▁शु	-10.8469
▁संभावना	-10.8471
क्षे	-10.8475
▁potsherds	-10.8478
▁दूसरे	-10.8479
▁सवति	-10.8481
▁७८	-10.8482
▁बच्चों	-10.8483
▁प्रसाद	-10.8483
बो	-10.8487
शरीर	-10.8489
▁उत	-10.8491
▁भव्य	-10.8494
▁विद्वान्	-10.8495
▁पांव	-10.8501
▁bound	-10.8507
ादौ	-10.8509
न्नि	-10.8509
▁लेती	-10.8511
▁घन	-10.8511
▁वाक्य	-10.8517
▁Sat	-10.8519
▁मन्न	-10.8521
ेगी	-10.8524
▁terminate	-10.8525
▁presents	-10.8527
ck	-10.8528
त्वाद	-10.8529
▁Pyaar	-10.8533
▁money	-10.8533
प्रा	-10.8534
û	-10.8534
▁achaar	-10.8535
▁सूचना	-10.8535
▁९७	-10.8536
▁गीत	-10.854
▁परमानन्द	-10.8547
ांश	-10.8547
▁colors	-10.855
▁बजे	-10.8553
▁मनस	-10.8556
▁compliments	-10.856
▁दर्शन	-10.8562
▁intellectual	-10.8565
▁श्रिय	-10.8565
▁चेत्	-10.8565
वरं	-10.8571
यन्	-10.8575
▁coming	-10.8577
when	-10.8588
खे	-10.8591
▁गतिः	-10.8592
C	-10.8592
▁रुद	-10.8597
▁ईश्वर	-10.8598
▁farming	-10.8599
▁हृदयं	-10.86
▁उतर	-10.8601
क्रम	-10.8604
▁H	-10.8605
0.	-10.8617
▁lage	-10.8622
ज्ञया	-10.8622
▁कवि	-10.8622
▁enters	-10.8624
बु	-10.8624
िभिः	-10.8631
▁प्राणेन	-10.8634
स्थं	-10.8636
▁दल	-10.864
▁distinct	-10.864
▁sentence	-10.864
सद	-10.8655
स्थाने	-10.866
▁mark	-10.866
Plus	-10.8661
▁information	-10.8661
▁kafi	-10.8661
▁द्वितीयाध्याये	-10.8661
बल	-10.8663
▁admire	-10.8666
▁समास	-10.8667
▁सेव	-10.8668
▁trend	-10.8671
▁uska	-10.8671
▁element	-10.8674
sâman	-10.8675
▁concept	-10.868
▁संकोच	-10.868
▁members	-10.8682
▁draw	-10.8685
▁मनुष्य	-10.8685
▁St	-10.8686
▁मही	-10.8686
▁सर्वभूत	-10.8693
पर्यन्त	-10.8695
णः	-10.8697
▁Us	-10.87
न्द्रियाणि	-10.8704
रहित	-10.8705
;'--'	-10.8712
मयो	-10.8713
▁सर्वम	-10.8717
▁30	-10.8718
▁temples	-10.8719
▁महोपनिषत्	-10.8719
ul	-10.8722
▁imagination	-10.8725
▁assuredly	-10.8725
▁Agnihotra	-10.8725
▁thereupon	-10.8726
▁gained	-10.8728
▁बातें	-10.8728
▁G	-10.8735
प्रत्ययः	-10.8735
▁serve	-10.8737
▁usse	-10.8737
▁wah	-10.8738
▁apply	-10.8739
▁Brihaspati	-10.8743
▁devotion	-10.8745
▁fruits	-10.8748
▁क्षय	-10.875
▁ब्रह्मणो	-10.8752
▁रोक	-10.8752
▁test	-10.8753
▁लता	-10.8755
▁सिंह	-10.8758
verses	-10.876
achhi	-10.876
▁sit	-10.8761
▁जोड़	-10.8762
चित्त	-10.8762
▁Life	-10.8768
▁रि	-10.8768
dam	-10.8773
▁प्रविश्य	-10.8774
▁मुश्किल	-10.8777
सँ	-10.8777
शत	-10.8778
▁नौ	-10.8782
▁kare	-10.8783
तपति	-10.8789
▁tension	-10.879
▁khatam	-10.8791
▁milega	-10.8791
1818	-10.8791
▁khane	-10.8792
▁खड़ा	-10.8792
knowing	-10.8795
▁पकड़ा	-10.8796
▁shayari	-10.8796
ांश्च	-10.8796
▁couple	-10.8798
त्रय	-10.88
▁west	-10.8801
▁वृक्ष	-10.8801
▁लभते	-10.8802
मेत	-10.8803
▁बनाने	-10.8806
▁यच्च	-10.8807
रुण	-10.8808
▁passing	-10.8809
▁मायया	-10.8816
▁पश्चात्	-10.882
▁करें	-10.8824
▁heat	-10.8828
▁drink	-10.8828
▁Rishis	-10.8829
क्ष्य	-10.8832
out	-10.8839
▁विमला	-10.884
▁aap	-10.884
▁     	-10.8845
no	-10.8847
▁चेतना	-10.8848
▁जगाम	-10.8852
▁enclosing	-10.8855
▁contrary	-10.8855
▁golden	-10.8857
▁dark	-10.8858
▁Mil	-10.8858
▁बगल	-10.886
▁जानती	-10.8864
▁prem	-10.8864
▁मकार	-10.8864
▁आकार	-10.8865
▁Kālidāsa	-10.8871
▁९०	-10.8876
▁statements	-10.8877
▁lotus	-10.8877
प्रति	-10.8877
▁direction	-10.8877
▁एकः	-10.8877
▁करके	-10.8879
ञ्चि	-10.888
न्यथा	-10.8881
▁ला	-10.8886
▁artists	-10.8887
सेति	-10.8888
▁प्रोक्ता	-10.889
▁जना	-10.889
▁दरवाजे	-10.8894
▁द्विज	-10.8894
▁महत्	-10.8903
▁haven	-10.8904
▁pav	-10.8906
देह	-10.8907
▁सर्प	-10.8914
लम्	-10.892
▁awesome	-10.8921
▁subordinate	-10.8921
▁lenge	-10.8922
▁भवान्	-10.8923
▁karogi	-10.8924
▁27	-10.893
▁Vritra	-10.8931
▁Ka	-10.8931
▁rays	-10.8931
▁possessing	-10.8935
▁लेते	-10.8937
माना	-10.8937
▁सभा	-10.894
▁daily	-10.8946
▁declaration	-10.8949
▁इतर	-10.8951
▁विश्वा	-10.8951
')	-10.896
▁कुमार	-10.8964
▁श्	-10.8966
▁लिप्यत	-10.8966
thodi	-10.8968
▁क्त	-10.8969
्ते	-10.897
याय	-10.8972
▁founded	-10.8973
▁Sun	-10.8977
▁Hindi	-10.8979
▁super	-10.8981
▁अङ्ग	-10.8986
▁मिनट	-10.8987
ङ्गानि	-10.8988
▁authority	-10.8988
▁Pehle	-10.8992
▁शाखा	-10.8994
▁सत्	-10.8994
▁केवळ	-10.8995
▁promote	-10.8998
▁followed	-10.9
२४	-10.9001
▁स्वस्थ	-10.9005
▁रहते	-10.9006
▁dar	-10.9007
▁स्थितम्	-10.9008
▁bad	-10.9009
vâ	-10.9011
▁hymns	-10.9012
▁घ्राण	-10.9012
▁आकर	-10.9015
▁पाठ	-10.9015
न‍म्	-10.9016
▁substances	-10.902
▁मुझसे	-10.9022
▁loved	-10.9024
▁सन्ति	-10.9025
ऊ	-10.9031
12)	-10.9034
▁बु	-10.9045
▁motivate	-10.9046
▁तन्मय	-10.9047
▁favour	-10.9048
▁चिद	-10.9048
▁explains	-10.9049
▁Earth	-10.905
▁Any	-10.9051
41)	-10.9053
▁लगीं	-10.9054
▁motivation	-10.9054
▁चतुथथी	-10.9054
▁खबर	-10.9054
दश	-10.9055
▁आप्यायन्त्विति	-10.9055
▁feast	-10.9057
ाऽ	-10.9059
स्थः	-10.9062
रखने	-10.9062
▁पैस	-10.9065
▁Release	-10.9071
▁सर्वज्ञ	-10.9072
▁आती	-10.9072
▁पाना	-10.9072
▁assertion	-10.9076
▁leading	-10.9076
नहीं	-10.9079
▁eleven	-10.9079
▁details	-10.908
Ka	-10.908
▁physical	-10.9081
▁बेन	-10.9082
▁Upanishad	-10.9086
▁recites	-10.9089
▁त्रयो	-10.9094
मथ	-10.9094
▁अन्त	-10.9103
१६	-10.9107
▁dialogues	-10.9112
न्यो	-10.9116
▁सर्वम्	-10.9116
भव	-10.9117
▁extraordinary	-10.9121
▁स्मृति	-10.9122
▁23	-10.9122
▁mood	-10.9122
▁skip	-10.9123
मन्न	-10.9124
▁वर्तते	-10.9127
▁basis	-10.9127
B	-10.9128
▁गौतम	-10.9128
सूत्र	-10.913
ारे	-10.9132
षे	-10.9132
दय	-10.9134
▁low	-10.9136
ीया	-10.9136
स्था	-10.9138
▁Âditya	-10.914
▁संन्यस्त	-10.914
▁therefrom	-10.9142
▁begin	-10.9144
▁देवस्य	-10.9144
friendly	-10.9146
बी	-10.9147
▁हवा	-10.9153
different	-10.9154
▁तेजस	-10.9154
▁जहा	-10.9156
वन्	-10.9157
▁otherwise	-10.9159
▁thine	-10.916
▁.............	-10.9163
–	-10.9167
िा	-10.9167
▁function	-10.9171
ध्यान	-10.9173
मास	-10.9175
▁अह्य	-10.9178
वण	-10.9181
▁चापि	-10.9184
▁manifold	-10.9188
▁आधुनिक	-10.9189
▁easy	-10.9189
▁khubsurat	-10.9189
▁नंबर	-10.9189
▁poetry	-10.9189
▁षष्‍ी	-10.9191
▁represented	-10.9194
▁soft	-10.9195
(	-10.9196
परं	-10.9197
yam	-10.9197
▁deeply	-10.9199
ब्य	-10.9202
नींद	-10.9202
▁कुल	-10.9205
▁changes	-10.921
ान्न	-10.9211
▁राग	-10.9212
▁fest	-10.9212
▁worth	-10.9212
ap	-10.9218
▁प्रधान	-10.9222
▁discussing	-10.9223
जहां	-10.9223
▁khel	-10.9226
▁ladki	-10.9228
▁करवा	-10.9234
▁जनको	-10.9242
▁सार	-10.9248
▁भ्रम	-10.9249
रम	-10.9251
▁पितामह	-10.9252
Bha	-10.9255
▁तैयार	-10.9257
▁Atman	-10.9258
▁subjects	-10.9262
▁पलट	-10.9263
▁jat	-10.9272
ादेव	-10.928
▁circumstance	-10.928
▁perspective	-10.9281
▁struggle	-10.9281
▁तमो	-10.9285
▁कोश	-10.9288
▁मना	-10.9289
su	-10.929
▁throws	-10.9291
▁rivers	-10.9291
▁count	-10.9293
▁persons	-10.9293
ाख्य	-10.93
▁ताव	-10.9304
▁नून	-10.9307
स्यापि	-10.9308
▁धारयेत्	-10.9308
▁poet	-10.931
▁Time	-10.9311
6.	-10.9315
▁accord	-10.9316
▁banaye	-10.9324
▁Pradhâna	-10.9325
▁guy	-10.9325
▁importance	-10.9325
▁philosophical	-10.9325
▁peene	-10.9325
▁theater	-10.9326
चरति	-10.9327
▁Mela	-10.9327
▁सवा	-10.9329
▁equally	-10.9329
▁practical	-10.933
▁cart	-10.9331
 1;	-10.9332
▁25	-10.9332
पी	-10.9335
▁विश्वरूप	-10.9339
▁वहीं	-10.9341
▁उकार	-10.9347
▁इमा	-10.935
▁wedding	-10.9352
वयान्	-10.9353
▁iti	-10.9357
▁रो	-10.9357
▁ध्वनि	-10.936
▁dum	-10.9361
do	-10.9363
वै	-10.9363
▁पूर	-10.9366
Why	-10.9367
▁additional	-10.9367
Having	-10.9368
▁उदान	-10.9369
▁चाहे	-10.9369
सव	-10.9371
▁तुझे	-10.9372
▁धाम	-10.938
ष्व	-10.9382
▁लोको	-10.9384
ैर्	-10.9384
▁stone	-10.9384
▁तेजसा	-10.9384
▁संपन्न	-10.9385
▁praise	-10.9385
▁tail	-10.9389
▁पड़ी	-10.9392
▁चिन्मय	-10.9393
▁Deal	-10.9396
नया	-10.9397
▁list	-10.9397
भो	-10.9399
be	-10.94
▁below	-10.9401
▁वाग	-10.9401
▁मनसि	-10.9401
▁तस्मै	-10.9405
▁चाहते	-10.9406
▁सुखेन	-10.9409
▁decide	-10.941
▁सुना	-10.9411
▁land	-10.9412
▁पाप्मान	-10.9418
ेयं	-10.9428
▁lights	-10.9431
ाजी	-10.9433
▁खोज	-10.9435
▁bringing	-10.9439
ात्मन	-10.944
▁नाहं	-10.944
ासन	-10.9448
▁rite	-10.9449
▁root	-10.9451
क्क	-10.9452
▁Such	-10.9453
ेश्वर	-10.9455
▁क्षीर	-10.9459
चक्र	-10.946
▁mutual	-10.9461
▁इशाद्युपनिषत्सु	-10.9465
▁छो	-10.9465
▁तान्	-10.9466
▁banaya	-10.9467
▁corner	-10.9467
▁साँस	-10.9467
११	-10.9468
▁पापड़	-10.9472
▁dharma	-10.9476
युपनिषत्सु	-10.9476
▁joined	-10.9477
▁Sure	-10.9477
▁sunna	-10.9479
मन्थे	-10.9479
न्ध	-10.9483
ुर	-10.9484
▁Dance	-10.9486
काः	-10.9488
▁quarters	-10.949
▁हैदराबाद	-10.949
▁kahi	-10.9492
वन्ति	-10.9493
▁aspect	-10.9493
२२	-10.9495
▁abides	-10.9495
▁business	-10.9499
ावन	-10.9504
▁ह्याह	-10.9506
▁तस्ये	-10.9512
▁characteristics	-10.9513
▁दृष्ट	-10.9517
▁बरह्म	-10.9531
▁प्रसन्न	-10.9532
▁दोपहर	-10.9534
ाश्रम	-10.9535
इस	-10.9536
▁touches	-10.9537
ru	-10.9538
ोत्तर	-10.954
२८	-10.9541
▁समाज	-10.9546
▁master	-10.9554
▁continued	-10.9554
▁conditions	-10.9557
▁घोर	-10.9558
मस्ति	-10.9558
▁vii	-10.9562
▁रुद्राक्ष	-10.9562
स्तव	-10.9567
चर	-10.9567
▁खरीद	-10.9576
▁political	-10.958
हमिति	-10.9581
▁खूब	-10.9581
▁Some	-10.959
रुवाच	-10.9592
three	-10.9593
जं	-10.9593
▁कार	-10.9594
▁छोका	-10.9596
▁एप	-10.9597
विति	-10.9597
▁wit	-10.9602
जीवः	-10.9602
नापि	-10.9602
▁jaisa	-10.9604
▁aisi	-10.9604
▁चुकी	-10.9605
▁समं	-10.9605
▁Weber	-10.9606
्ण	-10.9607
▁dear	-10.9607
▁thrilling	-10.9609
ितो	-10.9611
L	-10.9612
▁questions	-10.9616
▁सखी	-10.9619
▁मुद्रा	-10.9623
वप	-10.9626
▁practices	-10.9626
▁कदा	-10.9629
हृदय	-10.963
▁sunne	-10.963
त्मा	-10.963
▁enjoyed	-10.9631
▁mission	-10.9631
▁आह	-10.9646
त्वे	-10.9646
▁ब्याह	-10.9648
कस्	-10.9648
▁परो	-10.965
▁सवं	-10.9655
मचु	-10.9656
कामगार	-10.9662
मानः	-10.9662
▁स्वात्म	-10.9663
▁gift	-10.9667
▁sam	-10.9672
न्तरं	-10.9674
▁Professor	-10.9675
▁ण‍वभणति	-10.9675
ies	-10.9675
▁आपो	-10.9676
▁clothes	-10.9676
▁everywhere	-10.9676
▁द्वारका	-10.9678
▁चेहरे	-10.968
▁रहती	-10.9682
▁शब्दो	-10.9682
ा‍म्	-10.9684
▁रेखा	-10.9685
▁राख	-10.9695
ञ्न	-10.97
▁epic	-10.9701
▁J	-10.9704
▁film	-10.9705
द्द	-10.9709
▁ऐ	-10.9718
▁हार	-10.972
▁मध्यम	-10.9722
णम्	-10.9724
बीजं	-10.9724
▁आत्मन	-10.9729
।’	-10.9729
▁पू	-10.9729
धर	-10.973
▁काय	-10.9732
▁toward	-10.9732
▁हेव	-10.9733
▁led	-10.9734
▁mili	-10.9743
▁चीर	-10.9744
what	-10.9744
▁spoke	-10.9744
▁भोक्ता	-10.9744
▁southern	-10.9747
▁exactly	-10.9747
▁sharing	-10.9748
▁कुर्यात्	-10.9749
3.	-10.9751
▁भगवान	-10.9752
▁९३	-10.9752
blowing	-10.9752
▁डाल	-10.9755
नादि	-10.9757
▁remind	-10.9757
▁अभ्यास	-10.976
कितना	-10.976
▁foot	-10.9761
▁Will	-10.9761
▁प्रज	-10.9762
▁अवप	-10.9765
▁विश	-10.9765
▁सर्वतः	-10.9767
 3.	-10.9768
▁क्षर	-10.9769
▁recognize	-10.9769
▁jar	-10.9771
ात्मान	-10.9776
खरूप	-10.9787
▁भरी	-10.9787
▁धीरे	-10.9792
िन	-10.9792
कमे	-10.9793
▁bit	-10.9795
▁pap	-10.98
▁महान्	-10.9801
ोह	-10.9802
▁ताक	-10.9803
यमात्मा	-10.9806
▁carry	-10.9809
▁प्रण	-10.9817
▁निर्वाण	-10.9818
▁Brahma	-10.9818
▁escape	-10.9818
▁beneath	-10.982
▁निकाल	-10.982
▁ऋषिः	-10.9821
▁helpful	-10.9828
▁धर	-10.983
▁50	-10.9831
▁happen	-10.9832
▁ability	-10.9832
▁चिष्णु	-10.9836
▁स्थितो	-10.9837
▁बड़ा	-10.9839
▁threads	-10.984
graha	-10.9842
▁b	-10.9846
▁argument	-10.9846
▁कैसी	-10.9847
▁जरूर	-10.9848
▁चेत	-10.9849
▁सकळ	-10.9854
▁mile	-10.9857
8.	-10.986
▁remaining	-10.9864
शः	-10.9868
स्थिति	-10.987
wa	-10.9878
▁९९	-10.9882
▁शिशुपाल	-10.9885
▁dress	-10.9885
▁भूयो	-10.9887
▁virtual	-10.9888
▁कमै	-10.9889
हार	-10.989
▁ajeeb	-10.9891
▁guitar	-10.9891
▁कार्यालय	-10.9891
inas	-10.9891
▁sang	-10.9894
▁कल्याण	-10.9895
▁tomorrow	-10.9895
),--	-10.9896
▁तृष्णा	-10.9897
▁Through	-10.9901
▁रा	-10.9903
ष्यति	-10.9906
▁building	-10.9908
▁loom	-10.9909
▁सन	-10.9909
▁jaa	-10.9912
▁pick	-10.9916
yo	-10.9926
कामो	-10.9931
नत	-10.9931
पीठ	-10.9932
वर्जितः	-10.9933
▁पहचान	-10.9934
▁नेति	-10.9935
▁कथा	-10.9936
▁reh	-10.9936
▁depth	-10.9937
वान	-10.9941
िष्ट	-10.9947
▁cows	-10.9948
ane	-10.9954
ानीति	-10.9955
âs	-10.9955
▁खेल	-10.9959
▁vâ	-10.9963
▁duty	-10.9964
▁कारणं	-10.9964
▁एकादश	-10.9964
▁लड़की	-10.9965
▁develop	-10.9965
▁stake	-10.9965
ंग	-10.9966
ध्यायः	-10.9967
▁चेहरा	-10.9968
वृत्ति	-10.9969
▁inference	-10.997
▁hero	-10.997
▁learned	-10.9972
▁entirely	-10.9973
▁पुरुषस्य	-10.9974
कारण	-10.9976
▁दह	-10.9976
▁maintained	-10.9976
▁ननु	-10.9979
▁सख्य	-10.9979
▁सुक्तो	-10.9981
▁originate	-10.9985
▁औ	-10.9985
▁अखण्डेकरस	-10.9986
▁Ait	-10.9988
▁फट	-10.9989
▁छोटी	-10.9992
5.	-10.9995
▁प्रमाण	-10.9995
▁giving	-11
▁गुह्य	-11.0001
▁कुण्डली	-11.001
तप	-11.0013
▁proceeds	-11.0019
वभ	-11.0023
▁Punjab	-11.0024
ter	-11.0024
ाप्येति	-11.0025
▁कथम	-11.0027
▁Miss	-11.0037
▁captivating	-11.0037
▁research	-11.0037
▁Ganga	-11.0037
▁एतस्य	-11.0037
तमा	-11.0039
▁bhara	-11.0039
▁diverse	-11.004
▁पन्था	-11.0041
पुर	-11.0045
▁graha	-11.0051
▁nikal	-11.0051
▁samajhna	-11.0053
त्वां	-11.0054
▁कर्थ	-11.0057
▁सच्चिदानन्द	-11.0058
such	-11.0066
gi	-11.0067
याति	-11.0068
)--	-11.0069
▁ga	-11.0071
१८	-11.0075
▁सुखी	-11.0076
▁Log	-11.0076
▁gaana	-11.0076
▁भवत	-11.0083
्ि	-11.0083
तत्त्व	-11.0085
▁छु	-11.0089
▁योऽ	-11.0089
▁किम्	-11.0095
▁mix	-11.0096
▁logic	-11.0098
vas	-11.01
▁क्षेत्र	-11.0103
▁श्व	-11.0106
▁silent	-11.0109
▁तमेव	-11.011
▁enough	-11.0111
▁sustainable	-11.0112
▁८१	-11.0113
▁करेंगे	-11.0116
स्याः	-11.0116
▁मो	-11.0117
▁cooking	-11.0117
माकाश	-11.0118
▁31	-11.0122
▁portion	-11.0127
▁रहता	-11.0129
सेच	-11.0131
Self	-11.0136
▁गृहस्थ	-11.0138
gods	-11.0142
Nor	-11.0144
▁स्मरण	-11.0146
▁स्त	-11.0149
▁कण्ठे	-11.0151
▁safe	-11.0152
▁authors	-11.0155
सेन	-11.0159
▁विजय	-11.0162
▁बढ़	-11.0165
prayer	-11.0169
▁almo	-11.0172
▁साधन	-11.0174
▁samjha	-11.0174
▁हृद्य	-11.0175
▁तम्	-11.0177
▁धीर	-11.0177
च्यते	-11.0182
▁large	-11.0183
▁Chennai	-11.0186
▁Phir	-11.0186
▁forsooth	-11.0186
▁mesmerizing	-11.0186
▁अभ्‍यास	-11.0186
▁chahte	-11.0186
▁दाखिल	-11.0187
▁कंचन	-11.0187
▁Le	-11.0187
▁whosoever	-11.0188
▁tabhi	-11.0188
भूमि	-11.0188
▁gave	-11.0189
सेक	-11.0191
येव	-11.0194
▁none	-11.0195
स्स	-11.0196
ल्य	-11.0196
ितम्	-11.02
4.	-11.0204
▁please	-11.0208
mo	-11.0209
▁dances	-11.0212
▁Only	-11.0212
▁यस्तु	-11.0214
▁sunset	-11.0216
▁Rishi	-11.0217
▁watching	-11.0218
स्मिन्	-11.0219
▁helps	-11.022
five	-11.0221
▁differences	-11.0221
▁party	-11.0224
kara	-11.0225
▁स्तन	-11.023
ध्याये	-11.0232
▁पादः	-11.0234
▁Is	-11.024
▁udgîtha	-11.0241
ोवाच	-11.0242
▁प्रजापतिः	-11.0243
pe	-11.0244
nt	-11.0248
तन	-11.0249
ेन्द्रिय	-11.0252
▁यञ्च	-11.0255
▁Hume	-11.0262
▁dead	-11.0262
▁उठी	-11.0265
▁arrived	-11.0265
▁वृद्ध	-11.0265
▁तान	-11.0269
j	-11.0272
▁चतुर्थी	-11.0273
▁पञ्चमी	-11.0278
▁contribute	-11.028
▁fingers	-11.0281
▁cloth	-11.0281
▁Shah	-11.0284
▁red	-11.029
▁innovation	-11.0292
Now	-11.0297
▁हेतु	-11.0303
और	-11.0304
east	-11.0307
च्या	-11.0308
तस्	-11.031
▁ear	-11.0312
ज्ज	-11.0315
ाभि	-11.0318
▁भक्ति	-11.0322
शब्द	-11.0324
▁render	-11.0325
spoon	-11.0325
age	-11.0331
िए	-11.0331
▁post	-11.0332
▁बहु‍वचन	-11.0337
▁caught	-11.0337
▁Pûrvapakshin	-11.0337
▁Khândogya	-11.0337
ेगा	-11.0338
▁वज्रेण	-11.0338
7.	-11.0339
▁chalenge	-11.0339
▁khelte	-11.0343
▁ritual	-11.0348
▁सप्तमाध्याये	-11.0349
▁viii	-11.035
मज	-11.0352
ात्मना	-11.0354
दू	-11.0354
▁construction	-11.0356
▁dikha	-11.0356
▁firm	-11.036
▁Love	-11.036
▁अस्तु	-11.0363
▁requires	-11.0363
▁नर्स	-11.0364
▁ब्रह्मणा	-11.0365
▁प्रस्ताव	-11.0365
▁apparently	-11.0367
▁क्क	-11.0369
▁सचरति	-11.037
midst	-11.0371
▁shaped	-11.0371
▁नाव	-11.0375
▁pra	-11.0377
▁looks	-11.0379
▁destination	-11.0382
▁पूषा	-11.0386
योनिः	-11.0386
,"	-11.0391
डा	-11.0396
परः	-11.0397
ेता	-11.0401
▁तदेष	-11.0403
▁conflict	-11.0404
▁इधर	-11.0405
शेष	-11.0406
▁mantras	-11.0408
▁prepared	-11.0409
▁grace	-11.0413
▁stunning	-11.0413
▁women	-11.0414
world	-11.0414
▁ज्ञ	-11.0414
▁केंद्र	-11.0414
▁बोली	-11.0414
They	-11.0414
▁lest	-11.0415
▁handicrafts	-11.0417
▁संयम	-11.042
▁watched	-11.0421
▁८२	-11.0423
▁generally	-11.0423
dhâ	-11.0426
▁नील	-11.0428
▁maze	-11.0428
व्त	-11.0428
▁कामा	-11.0429
▁ज्	-11.0429
▁क्षत्र	-11.0434
२०	-11.0435
पनिषत्	-11.0435
बुद्धि	-11.0438
▁द्वार	-11.0439
गच्छति	-11.044
▁knower	-11.044
using	-11.0449
▁minute	-11.0453
▁expressed	-11.0453
व्या	-11.0461
▁ब्रह्मणे	-11.0462
verse	-11.0463
▁महेश्वरः	-11.0466
▁रुद्रा	-11.0467
▁चेष्टा	-11.0473
चारो	-11.0476
▁हमारा	-11.0479
ab	-11.0479
▁denoted	-11.0479
▁गिरा	-11.0479
▁cast	-11.0481
१५	-11.0482
z	-11.0486
मात्म	-11.0488
▁Du	-11.0488
▁एच	-11.0489
▁Especially	-11.049
▁hobbies	-11.049
▁crisis	-11.049
▁regional	-11.0493
▁unhe	-11.0497
▁holy	-11.0497
▁संप्रति	-11.0498
▁समस्या	-11.0501
▁किंच	-11.0504
▁band	-11.0512
▁month	-11.0513
झि	-11.0515
▁value	-11.0516
▁विनय	-11.052
ential	-11.0525
▁quiet	-11.0528
ाझोति	-11.0529
▁Indians	-11.0531
▁Ra	-11.0533
▁८४	-11.0538
भावो	-11.0538
▁डा	-11.0539
वदति	-11.054
‍या	-11.0541
▁प्रसिद्ध	-11.0543
four	-11.0543
▁trends	-11.0544
जाल	-11.0548
oos	-11.0551
▁पहुंचा	-11.0553
▁दक्ष	-11.0555
कुल	-11.0556
ात्मनो	-11.0557
ैष	-11.0558
योगेन	-11.0561
sha	-11.0562
holding	-11.0562
aj	-11.0566
▁enemies	-11.0568
▁jungle	-11.0568
▁kept	-11.0568
▁छाती	-11.0569
▁पूर्णमद	-11.057
▁supposed	-11.0571
▁उचित	-11.0571
पुरुष	-11.0572
par	-11.0574
▁New	-11.0576
▁कल्पना	-11.0576
▁sprinkles	-11.0577
▁तथैव	-11.0578
▁शर	-11.058
विहीन	-11.0585
▁आपका	-11.0588
day	-11.0589
▁दशम	-11.0593
सिद्ध	-11.0594
▁events	-11.0601
▁तेजः	-11.0602
▁28	-11.0605
▁bird	-11.0606
मिः	-11.0609
दुःख	-11.0611
▁यतः	-11.0612
▁काले	-11.0615
जीव	-11.0615
▁तीर्थ	-11.0619
▁यात्रा	-11.0621
पार	-11.0623
▁remarks	-11.0625
मदद	-11.0629
कल्प	-11.0636
▁अहंकार	-11.0639
▁systems	-11.0639
▁आईं	-11.064
छा	-11.0642
▁Kumbh	-11.0646
▁breathtaking	-11.0646
ant	-11.0647
▁attention	-11.0648
१९	-11.0648
▁पढ़ा	-11.0652
▁recited	-11.0653
▁wholeness	-11.0654
▁वाम	-11.0654
क्ता	-11.0656
▁सूय	-11.0658
▁युवा	-11.066
▁pieces	-11.0662
▁वापस	-11.0663
▁नगर	-11.0663
▁नारायणो	-11.0663
मित्य	-11.0666
▁45	-11.0667
ल्या	-11.0671
हाय	-11.0673
▁spirits	-11.0673
बद्ध	-11.0673
;'--	-11.0673
▁jaha	-11.0674
▁crafts	-11.0677
▁दृश्य	-11.0679
र्या	-11.0681
▁freed	-11.0684
▁allow	-11.0685
▁मातलि	-11.0686
यमेव	-11.0687
▁merged	-11.0688
स्वर	-11.0689
ैक	-11.0691
▁कमल	-11.0693
भेव	-11.07
वस	-11.0706
न्दु	-11.0706
द्ग	-11.0707
▁एतमेव	-11.0709
Indra	-11.0711
▁rock	-11.0715
▁वाचं	-11.0724
invitatory	-11.0725
▁guess	-11.0725
▁Bose	-11.0725
▁ma	-11.0728
▁९८	-11.0728
द्वितीय	-11.0728
me	-11.0729
▁ascribed	-11.073
▁पांच	-11.0731
▁structure	-11.0731
मन्तरे	-11.0733
▁दान्त	-11.0734
▁win	-11.0736
▁organ	-11.0736
▁sent	-11.0737
▁meaningful	-11.074
▁दीवार	-11.0743
ात्मकं	-11.0746
▁अधि	-11.0747
▁निर्मला	-11.0752
▁किंचित्	-11.0752
▁संकेत	-11.0755
▁भाई	-11.0757
▁legend	-11.0759
▁station	-11.0759
दम	-11.0761
▁हिरण्मय	-11.0763
▁participate	-11.0763
Not	-11.0768
ठु	-11.0771
▁भथ	-11.0774
▁kindling	-11.0775
▁Agnishtoma	-11.0777
▁बच्चा	-11.0778
सारे	-11.0786
▁परिचय	-11.0796
▁desired	-11.0799
▁possibilities	-11.0804
▁आध्यात्मिक	-11.0804
▁णवि‍वचन	-11.0804
▁Kyunki	-11.0804
▁sq	-11.0805
▁खत्म	-11.0806
▁दिखाई	-11.0806
▁Sita	-11.0807
छान्दोग्योपनिषत्	-11.081
020.	-11.081
▁peaceful	-11.081
▁lie	-11.0811
▁surely	-11.0814
जात	-11.0815
त्वम्	-11.0815
▁pp	-11.0816
▁सत्त	-11.0817
▁chariot	-11.0817
परे	-11.082
वकं	-11.0827
▁edge	-11.083
ाद्या	-11.0833
▁मनुष्या	-11.0834
क्रिया	-11.0834
स्तम्भयति	-11.0835
▁चली	-11.0837
▁36	-11.0838
▁विचित्र	-11.0847
▁humor	-11.0847
▁era	-11.085
▁संस्थित	-11.085
ळे	-11.0852
▁विकल्प	-11.0853
माय	-11.0858
▁बह्मा	-11.0858
तिष्ठति	-11.086
▁सोऽहं	-11.0863
▁दुर	-11.0865
२५	-11.0866
▁ओता	-11.0869
▁शोचति	-11.0875
जय	-11.0878
▁सर्वमिद	-11.088
३७	-11.0881
▁kis	-11.0883
▁पितर	-11.0883
▁conjunction	-11.0884
▁industry	-11.0884
▁springs	-11.0888
▁define	-11.089
ढ़	-11.0892
ष्ण	-11.0896
विज्ञान	-11.0896
sticks	-11.0898
▁भयं	-11.0901
▁पूरक	-11.0901
▁तदेत	-11.0902
मप	-11.0903
सुक्त	-11.0903
▁flow	-11.0904
ऋ	-11.0911
▁rises	-11.0912
▁त्रय	-11.0913
▁अन्यथा	-11.0914
▁Why	-11.0917
▁combined	-11.0918
नाम्	-11.0918
▁figure	-11.092
brick	-11.0921
▁job	-11.0924
वन्त	-11.0927
▁बड़े	-11.0928
▁कुसुम	-11.0932
▁wap	-11.0933
▁Yaa	-11.0933
▁सखा	-11.0935
▁भारतीय	-11.0937
▁उद्गीथ	-11.0938
▁गण	-11.0945
▁स्वः	-11.0947
▁खाना	-11.0947
धी	-11.0947
▁47	-11.0949
ुद्ध	-11.0951
दिने	-11.0959
▁परमे	-11.0961
वतु	-11.0961
hâ	-11.0962
▁Pratiprasthâtri	-11.0965
▁hometown	-11.0965
राः	-11.0965
▁storytelling	-11.0965
▁Mahal	-11.0965
▁burning	-11.097
▁constituting	-11.0973
▁returned	-11.0974
▁range	-11.0974
▁हाल	-11.0975
ाइ	-11.0976
▁ब्	-11.0978
▁महान्त	-11.0979
श्चा	-11.0988
▁अम	-11.099
विध	-11.0995
▁possibility	-11.0996
▁consequence	-11.1001
▁recipe	-11.1001
▁11.	-11.1003
याम्	-11.1003
▁options	-11.1007
तापिन्युपनिषत्	-11.1011
यन	-11.1016
▁९१	-11.1019
रुप	-11.1019
Apr	-11.1019
▁क्षमा	-11.102
▁व्याप्त	-11.1022
ist	-11.1023
▁भूतान्य	-11.1025
▁safari	-11.1026
▁प्रकरण	-11.1026
containing	-11.1026
▁तन्नो	-11.1032
▁तत्त	-11.1034
▁निर्णय	-11.1035
▁अद्य	-11.1035
▁प्रतिहार	-11.1041
▁अन्तः	-11.1041
▁extra	-11.1046
perforated	-11.1046
▁activities	-11.1046
▁impossibility	-11.1046
▁एक‍वचन	-11.1046
▁prefer	-11.1046
▁Similarly	-11.1046
मति	-11.1051
▁XI	-11.1054
▁परिपूर्ण	-11.1055
▁जानता	-11.1058
▁separation	-11.1063
फी	-11.1064
lo	-11.1064
▁required	-11.1066
▁existing	-11.1069
▁कान	-11.1071
ाख्यं	-11.1074
▁विज्ञेय	-11.1078
▁shap	-11.1079
▁दिनों	-11.1081
डे	-11.1085
▁Co	-11.1086
▁पय	-11.1088
▁northern	-11.1088
▁eaten	-11.109
▁समर्थ	-11.1098
▁श्रीम	-11.1103
▁नए	-11.1104
▁स्थाने	-11.1104
ेतानि	-11.1105
▁पदे	-11.1109
▁jisme	-11.111
▁उत्तम	-11.1113
▁contain	-11.1113
▁रजः	-11.1114
सङ्ग	-11.1115
सुखं	-11.1118
▁अंतर	-11.1121
वाच	-11.1122
मभि	-11.1123
▁successful	-11.1126
▁addition	-11.1126
▁11:52:3	-11.1127
▁fell	-11.1128
▁BOSE	-11.1128
▁mehs	-11.1128
ञु	-11.113
▁पश्चा	-11.113
▁भाभी	-11.113
▁carries	-11.113
▁झूठ	-11.1132
▁masala	-11.1135
मात्रा	-11.1138
tra	-11.114
▁सङ्ग	-11.114
▁shine	-11.114
▁sunte	-11.114
▁कृ	-11.1141
▁design	-11.1142
▁eating	-11.1144
४८	-11.1146
▁Tune	-11.1146
रन्ति	-11.1148
▁vibes	-11.1151
▁32	-11.1152
▁fate	-11.1154
▁aajkal	-11.1154
चत्	-11.1158
▁guhû	-11.1159
▁settle	-11.116
▁videos	-11.116
▁catch	-11.1161
ीनां	-11.1164
▁पवन	-11.1165
रवा	-11.1173
▁provide	-11.1174
येत	-11.1177
:5	-11.1179
▁finding	-11.1179
▁Rudra	-11.1186
▁representing	-11.119
▁probably	-11.1194
▁कचित्	-11.1197
वाक्	-11.1199
र्वा	-11.1201
sya	-11.1203
▁सृष्टि	-11.1205
▁g	-11.1209
▁encourage	-11.121
▁Ganges	-11.121
▁लें	-11.1215
मेद	-11.1221
ities	-11.1222
▁शि	-11.1224
▁सके	-11.1226
▁स्थितं	-11.1227
▁touched	-11.1229
▁ताँ	-11.1232
च्छा	-11.1232
made	-11.1233
▁आशा	-11.1235
प्रकार	-11.1235
▁पाए	-11.1238
▁दीर्घ	-11.1241
▁तार	-11.1244
▁बनाए	-11.1244
V	-11.1245
▁शर्त	-11.1247
ासां	-11.1247
keen	-11.1251
▁श्रमिक	-11.1258
▁प्रतिष्ठिता	-11.1261
▁वच	-11.1267
▁कैसा	-11.1268
▁matters	-11.1268
गतः	-11.1269
w	-11.1269
▁द्वारा	-11.127
▁गुजर	-11.127
▁Shiva	-11.1273
नेव	-11.1274
भिर	-11.1276
▁सन्न	-11.1277
▁rhythm	-11.1278
ऽस्य	-11.128
▁विदित्वा	-11.128
▁सत्ता	-11.1282
▁hearing	-11.1286
▁झा	-11.129
▁central	-11.1294
▁स्कूल	-11.1294
▁comfortable	-11.1294
्‍या	-11.1294
▁नित्यमधीते	-11.1294
न्द्रो	-11.1295
▁रुपये	-11.1295
▁padhna	-11.1296
▁artisans	-11.1296
ाऽऽ	-11.1298
▁मनसीति	-11.1298
ानाम	-11.13
▁पच	-11.13
▁approached	-11.1301
▁khayal	-11.1302
▁अधिकार	-11.1302
▁kha	-11.1302
धु	-11.1304
▁drama	-11.1306
कया	-11.1307
F	-11.1312
▁चर्चा	-11.1313
झा	-11.1314
▁चिरं	-11.1314
▁तभी	-11.1319
▁consist	-11.1319
नरः	-11.132
▁perceive	-11.1323
▁खो	-11.1323
▁patang	-11.1323
▁उक्त	-11.133
▁nine	-11.1331
▁blessing	-11.1333
▁पूरा	-11.1339
▁देहि	-11.1344
ाक्षरं	-11.1345
▁तुर्य	-11.1346
३४	-11.1349
▁ज्योति	-11.135
▁घूम	-11.1355
unga	-11.1361
▁भचति	-11.1365
ग्रह	-11.1365
मेकं	-11.1368
▁लगती	-11.137
▁८५	-11.137
२६	-11.1371
▁लि	-11.1371
▁८८	-11.1375
▁health	-11.1376
▁Imagine	-11.1378
▁nice	-11.1378
▁centre	-11.1378
रर	-11.138
▁spirituality	-11.138
▁गते	-11.1382
▁chase	-11.1383
▁Om	-11.1383
▁apps	-11.1387
▁चाव	-11.1388
▁उठाकर	-11.1389
)!'	-11.139
रूपो	-11.1395
स्थितः	-11.1396
मण्डल	-11.1397
▁सेषा	-11.1398
▁विरोध	-11.1399
▁Fir	-11.1405
▁लिखा	-11.1407
▁यश्च	-11.1408
▁establishe	-11.1408
▁निरा	-11.141
▁While	-11.141
▁smell	-11.1412
्च	-11.1414
▁सवै	-11.1414
▁तथेत	-11.1415
▁स्थ	-11.1415
▁performing	-11.1419
▁Every	-11.142
▁निदाघ	-11.142
पति	-11.1421
▁conduct	-11.1423
ship	-11.1423
▁शंकर	-11.1427
मुख	-11.1429
▁padh	-11.143
▁वदेत्	-11.143
▁XII	-11.1433
▁रत्न	-11.1433
▁कै	-11.1434
३१	-11.1434
▁सीधे	-11.1435
▁वीर्य	-11.1435
विवेश	-11.1435
▁minds	-11.1438
▁मिला	-11.1439
कृतं	-11.1441
▁kahaani	-11.1444
▁produces	-11.1448
▁खे	-11.1449
▁दास	-11.145
▁कति	-11.1452
▁relate	-11.1455
▁तञ्च	-11.1455
▁१००	-11.1457
३५	-11.1459
▁brilliant	-11.146
▁10,	-11.1462
▁floor	-11.1463
▁harmony	-11.1463
▁opportunity	-11.1463
▁implies	-11.1463
▁primary	-11.1463
▁kyunki	-11.1463
▁TV	-11.1463
▁नाटक	-11.1463
▁denge	-11.1464
▁व्यवस्थित	-11.1464
▁rehti	-11.1464
giras	-11.1464
▁unable	-11.1465
si	-11.1465
▁respectively	-11.1465
▁appear	-11.1465
▁expressions	-11.1469
▁compared	-11.147
▁जड	-11.1473
▁eva	-11.1473
▁meditated	-11.1475
▁तुमसे	-11.1476
▁अल	-11.1476
▁rakhte	-11.1477
▁ब्रह्मास्मि	-11.1477
▁hissa	-11.1478
▁walks	-11.148
माण	-11.1481
्यन्ते	-11.1482
▁Sometimes	-11.1483
▁भवतु	-11.1485
▁वसेत्	-11.1486
▁Perhaps	-11.1487
▁परात्पर	-11.1488
▁बाण	-11.1495
▁diversity	-11.1495
▁प्रपञ्च	-11.1496
गतं	-11.1497
▁bestows	-11.1498
▁इमे	-11.1501
▁प्राणापान	-11.1501
▁option	-11.1501
ीन	-11.1502
▁decision	-11.1503
▁effort	-11.1503
▁कर्मणा	-11.1505
▁यदिदं	-11.1506
ऽऽ	-11.1506
३८	-11.1508
121.	-11.1509
▁दिशो	-11.151
▁composed	-11.1514
▁padha	-11.1518
▁योऽय	-11.1518
▁शांत	-11.1519
ादिभि	-11.153
▁recite	-11.1532
ड़ी	-11.1532
▁महिमा	-11.1532
▁खर	-11.1535
▁जित	-11.1538
ात्मकः	-11.154
▁attained	-11.1541
▁सामाजिक	-11.1543
go	-11.1547
▁ocean	-11.1548
▁stood	-11.1548
▁opposite	-11.1548
▁colorful	-11.1548
▁bondage	-11.1548
▁fallen	-11.1549
▁followers	-11.1549
शाहुपनिषत्सु	-11.1549
ordination	-11.155
▁डिब्बे	-11.155
रास्ता	-11.155
▁agreement	-11.1551
▁शब्‍दों	-11.1556
▁८७	-11.1557
▁औरत	-11.1558
▁14.	-11.1567
तद	-11.1568
▁निरञ्जन	-11.157
ag	-11.157
ञ्र	-11.1571
यस्य	-11.1574
▁पर्स	-11.1576
his	-11.1576
▁वाल	-11.1581
▁हुत	-11.1583
ाळ	-11.1583
Do	-11.1584
▁कुत्र	-11.1584
:--	-11.1585
▁पठ	-11.1585
▁वाचो	-11.1585
सेत	-11.1592
▁मधुर	-11.1593
een	-11.1596
▁1),	-11.1599
▁arguments	-11.1601
▁pair	-11.1601
भाग	-11.1605
▁motion	-11.1606
▁economic	-11.161
नन	-11.1619
▁गोद	-11.1624
--'	-11.1626
ीयन्ते	-11.1627
▁realize	-11.1627
२९	-11.1634
▁Himachal	-11.1634
▁PUBG	-11.1634
▁Krishnamurti	-11.1634
▁सानुमत	-11.1634
▁significant	-11.1634
▁jarur	-11.1635
▁jaake	-11.1635
▁होम	-11.1635
ार्य	-11.1636
▁poured	-11.1637
▁घड़ी	-11.1637
▁pro	-11.1638
▁flirty	-11.1638
▁काश्यपः	-11.1639
▁रात्रि	-11.1642
▁chalna	-11.1644
▁40	-11.1646
▁हित	-11.1646
न्यत्र	-11.1648
▁problems	-11.1649
▁भेज	-11.1652
▁मानो	-11.1653
▁spices	-11.1655
पत	-11.1659
▁पादा	-11.1662
ेऽ	-11.1662
स्तेन	-11.1663
▁नायक	-11.1666
▁वक्तव्य	-11.1667
▁दुकान	-11.1667
▁तेरी	-11.1667
▁female	-11.1667
▁तेनेव	-11.1673
▁cessation	-11.1673
dha	-11.1674
▁machine	-11.1676
कृति	-11.1677
▁देवे	-11.1682
▁गौर	-11.1683
▁त्यक्त	-11.1686
▁रचना	-11.1686
▁वाणी	-11.1686
फिर	-11.1687
▁तस्माद्	-11.1688
▁silver	-11.1692
▁विश्वः	-11.1693
▁sikha	-11.1693
मध्य	-11.1697
▁तासा	-11.1697
▁खल	-11.1701
▁गणेशो	-11.1701
ूर	-11.1704
▁प्रव	-11.1707
▁spark	-11.1707
▁hall	-11.1714
▁किताब	-11.1716
मस्	-11.1718
▁evolution	-11.1719
▁आग्रह	-11.1721
▁recommend	-11.1721
▁comparison	-11.1721
▁contact	-11.1721
▁overcome	-11.1722
▁अनुमान	-11.1723
▁एकं	-11.1725
▁चिद्या	-11.1725
▁वेत्ति	-11.173
रस्य	-11.1731
बोध	-11.1733
▁खी	-11.1738
▁purposes	-11.1739
▁kons	-11.1739
▁respective	-11.174
▁1);	-11.1741
▁accordingly	-11.1741
सम्	-11.1744
▁introduced	-11.1746
our	-11.1746
▁happi	-11.1754
el	-11.1756
▁charming	-11.1758
▁service	-11.1758
▁reads	-11.1759
वाह	-11.176
▁beliefs	-11.1761
▁मानस	-11.1763
▁incident	-11.1764
▁९४	-11.1764
▁यथाकाम	-11.1765
▁वेदान्त	-11.1766
▁अद	-11.1767
▁भावय	-11.1767
yag	-11.1772
ent	-11.1775
▁कंध	-11.1777
▁स्वप्न	-11.1777
▁forces	-11.1778
्ग	-11.1781
चित्	-11.1784
organs	-11.1784
▁छूट	-11.1785
▁thence	-11.1785
▁शिरः	-11.1785
▁top	-11.1786
▁सूर्या	-11.1789
▁15.	-11.1789
▁वसु	-11.1793
▁tayyar	-11.1797
▁हमने	-11.1798
▁कल्पित	-11.1801
▁chaat	-11.1802
▁यावद	-11.1803
▁गणेश	-11.1805
▁complex	-11.1809
▁कथित	-11.1809
▁boring	-11.1809
▁mehnat	-11.1809
▁intense	-11.1809
▁rahunga	-11.1809
▁least	-11.1809
▁आदमी	-11.1809
▁ends	-11.181
▁rafting	-11.1811
▁nights	-11.1815
▁गले	-11.1817
क्यों	-11.1817
माश्रित्य	-11.1818
▁तस	-11.1818
गन्ध	-11.1818
▁listen	-11.1818
▁essentially	-11.182
▁१०२	-11.1821
चिद्या	-11.1821
योगः	-11.1822
▁तत्स	-11.1823
▁साक्षा	-11.1824
yanta	-11.1825
▁विवेक	-11.1827
No	-11.1827
्‍ो	-11.1832
संसार	-11.1833
▁hail	-11.1835
ड्य	-11.1835
▁तथ	-11.1836
▁....	-11.1837
▁त्य	-11.1838
▁consecration	-11.1843
▁दम	-11.1844
स्यां	-11.1848
वनयति	-11.1849
▁Mâyâ	-11.1849
▁जड़	-11.1851
▁throw	-11.1851
प्रथमोऽध्यायः	-11.1855
ोऽस्ति	-11.1855
▁इवा	-11.1857
▁पुस्तक	-11.1859
्येव	-11.186
▁lo	-11.1864
im	-11.1865
ud	-11.1869
सह	-11.187
▁८६	-11.1872
▁विज्ञाय	-11.1876
▁driving	-11.188
५६	-11.1882
ेंगे	-11.1882
ॐ	-11.1884
▁रु	-11.1887
ary	-11.1888
▁तारं	-11.1889
ुक	-11.1891
▁establish	-11.1893
चन	-11.1893
▁स्वस्तस्म	-11.1894
प्रभ	-11.1896
▁Music	-11.1897
▁स्टेशन	-11.1898
▁Because	-11.1898
▁dawn	-11.1898
▁धातु	-11.19
▁तथोक्त	-11.19
▁रू	-11.1902
▁प्रत्येक	-11.1902
▁added	-11.1905
▁aana	-11.1909
…”	-11.1913
var	-11.1914
▁बन्धो	-11.1915
▁कहना	-11.1917
्ध	-11.192
पाप	-11.1923
▁Suna	-11.1928
ोल	-11.1929
▁studying	-11.1929
▁सर्वथा	-11.1932
▁Sr	-11.1936
३०	-11.1936
गोचर	-11.1939
▁सोने	-11.194
▁possession	-11.1941
▁boy	-11.1942
▁shadow	-11.1942
▁timeless	-11.1943
स्ट	-11.1945
भावं	-11.1947
▁इमां	-11.1949
▁oneness	-11.1949
ात्र	-11.1955
▁यजमान	-11.1956
गता	-11.1956
▁वश	-11.1956
▁platform	-11.1958
▁त्वम	-11.1958
ble	-11.196
▁महादेव	-11.1964
▁तत्पुरुष	-11.1965
thus	-11.197
▁स्वीकार	-11.1971
▁बज	-11.1972
राज	-11.1973
मृत	-11.1977
ether	-11.1977
▁मण्डल	-11.198
▁Kh	-11.198
▁जवभजक्त	-11.1987
▁bull	-11.1987
▁enquiry	-11.1987
▁translation	-11.1987
शे	-11.1987
▁Acha	-11.1988
▁yaadgar	-11.1989
▁Yaar	-11.1989
▁backwaters	-11.199
▁प्रसीद	-11.1992
▁निश्चल	-11.1992
▁singing	-11.1996
▁जु	-11.1996
▁Ho	-11.1997
led	-11.1998
▁Kisi	-11.1998
▁संवाद	-11.1999
▁jodi	-11.2004
▁मिलने	-11.2009
▁गुद	-11.201
३६	-11.2012
▁letters	-11.2014
▁denoting	-11.2015
▁flavor	-11.2016
रेखा	-11.2016
योर	-11.2017
▁leta	-11.2018
चिद्धि	-11.202
▁jeevan	-11.2021
त्रि	-11.2021
द्ि	-11.2029
ted	-11.2031
▁defined	-11.2032
▁running	-11.2034
these	-11.204
▁shining	-11.2041
▁यथोक्त	-11.2043
▁honey	-11.2045
▁जनः	-11.2048
▁सुच्यते	-11.2048
▁यथ	-11.2048
ungi	-11.205
हम्	-11.2051
▁ब्राह्मणा	-11.2054
▁die	-11.2054
गः	-11.2057
राय	-11.2057
त्न	-11.2066
▁Man	-11.2069
▁चतुर	-11.2071
▁स्वात्मान	-11.2072
▁इस्त	-11.2073
मत्	-11.2073
स्थो	-11.2075
▁South	-11.2077
▁burst	-11.2077
▁pocket	-11.2077
▁Fift	-11.2077
▁equality	-11.2078
▁Re	-11.2079
▁निर्गुण	-11.2079
Svet	-11.2079
▁चुका	-11.208
▁ultimately	-11.2083
▁निष्कलं	-11.2083
if	-11.2083
▁विनि	-11.2085
पू	-11.2087
▁उठता	-11.2089
▁धारण	-11.2091
▁andar	-11.2092
इय	-11.2094
दः	-11.2099
वस्	-11.21
मेतत्	-11.21
▁wings	-11.2104
श्वा	-11.2104
let	-11.2105
४७	-11.2105
▁lose	-11.2106
au	-11.2109
ात्मिका	-11.2111
▁baha	-11.2111
▁चरण	-11.2115
ुत	-11.2116
▁12,	-11.2122
▁sphere	-11.2123
▁embracing	-11.2124
▁यदेव	-11.2124
▁flame	-11.2126
वय	-11.213
▁52	-11.2133
▁आराम	-11.2133
▁1).	-11.2135
▁मनोमय	-11.2135
ांसि	-11.2138
▁अथात	-11.2138
ाए	-11.2141
्यु	-11.2142
▁सुवः	-11.2142
▁Imperishable	-11.2143
त्रह्म	-11.2145
माला	-11.2146
om	-11.2147
▁निः	-11.2148
▁८९	-11.2148
▁हास्य	-11.215
ब्	-11.2152
▁इष्टा	-11.2152
▁portions	-11.2154
ोक्त	-11.2156
ally	-11.2159
याम	-11.2159
▁drives	-11.2164
▁11:52:2	-11.2168
▁Achcha	-11.2168
▁Interesting	-11.2168
▁awaaz	-11.2168
▁chicken	-11.2168
▁shuruaat	-11.2168
▁serene	-11.2168
▁बिस्तर	-11.2168
▁attractive	-11.2168
▁भूम	-11.217
▁मातर	-11.2171
▁यस्मा	-11.2171
▁seriously	-11.2172
▁वरना	-11.2176
▁वसिष्ठ	-11.2177
▁अच	-11.2178
▁loss	-11.2179
ख्	-11.2179
न्ये	-11.2181
ism	-11.2182
▁पूजा	-11.2182
▁greatness	-11.2183
अब	-11.2183
▁पहन	-11.2187
▁juice	-11.2189
भागे	-11.2189
▁त्यज	-11.2189
भिर्	-11.219
▁भगवान्या	-11.2192
▁आदित्या	-11.2193
मार्ग	-11.2195
▁मास	-11.2195
▁35	-11.2195
▁सीमा	-11.2196
तत्व	-11.2202
îya	-11.2209
▁pyaara	-11.221
क्राम	-11.221
▁pahunch	-11.221
▁29	-11.221
वृत्त	-11.2213
▁ज्योतिः	-11.2218
▁speed	-11.222
▁needs	-11.222
▁डर	-11.2224
माग	-11.223
q	-11.2232
▁पीत	-11.2232
▁Prâna	-11.2238
चरण	-11.2241
स्स्व	-11.2242
▁हठ	-11.2244
▁intimate	-11.2246
पद्यते	-11.2247
▁ix	-11.2247
▁राज्य	-11.2248
▁प्रतीक्षा	-11.2248
▁पितृ	-11.225
▁तेल	-11.2252
▁भूः	-11.2255
कसर	-11.2256
मुझे	-11.2258
▁हला	-11.2259
▁gratifies	-11.2259
▁intuition	-11.2259
▁substrate	-11.2259
▁possibly	-11.226
▁lightning	-11.226
▁समझा	-11.2262
▁पढ़ाई	-11.2262
▁जाया	-11.2262
▁बर	-11.2262
▁whenever	-11.2263
खण्ड	-11.2263
▁नमी	-11.2265
▁Lag	-11.2266
▁प्रभु	-11.2267
tam	-11.2274
▁प्राग	-11.2278
▁योगिना	-11.2278
▁पशु	-11.2285
ाख्या	-11.2286
▁बहन	-11.2287
विद	-11.2288
▁अध्याय	-11.2288
▁Ind	-11.2294
▁अहा	-11.2294
▁शुरु	-11.2297
▁कंठ	-11.23
▁ढ	-11.2301
▁दत्तात्रेय	-11.2303
र्ग	-11.2303
▁चक्षुः	-11.2303
▁routine	-11.2307
ापो	-11.2312
▁कहानी	-11.2315
▁प्रभाव	-11.2315
▁shines	-11.2318
▁aspects	-11.2318
▁likh	-11.2322
▁builds	-11.2325
▁handle	-11.2327
शय	-11.2328
▁सदृश	-11.233
▁संयुक्त	-11.2332
ara	-11.2333
कारा	-11.2334
▁L	-11.2336
▁कुत	-11.234
मया	-11.2344
ीयते	-11.2346
▁सुबालोपनिषत्	-11.2346
▁धन्य	-11.2347
चत	-11.2349
▁beats	-11.235
▁मनु	-11.2352
▁Asvins	-11.2352
▁pakka	-11.2352
▁relatable	-11.2352
▁suspense	-11.2352
▁मामूली	-11.2352
▁शार्ङ्गरव	-11.2352
▁hath	-11.2353
▁Dear	-11.2353
▁secondary	-11.2353
▁बताओ	-11.2353
▁चढ़ा	-11.2354
Moreover	-11.2356
▁reaching	-11.2357
▁कुर	-11.2357
▁उठती	-11.2357
9.	-11.2357
▁दुर्ग	-11.2363
▁identified	-11.2368
बार	-11.2369
▁Gods	-11.237
▁जपति	-11.2371
▁शब्‍द	-11.2372
ाध	-11.2374
▁नन्द	-11.2375
▁33	-11.2376
▁la	-11.2376
▁तपस	-11.2378
▁किंचि	-11.238
▁ignorance	-11.2381
▁benefits	-11.2382
▁खिल	-11.2389
▁desir	-11.239
▁वित्त	-11.239
▁increase	-11.2391
ङु	-11.2395
त्यो	-11.2395
▁li	-11.2397
मधीते	-11.2398
▁निर्विकल्प	-11.24
▁example	-11.24
धीरे	-11.2401
▁वायुना	-11.2401
▁गीयते	-11.2402
▁सर्वेश्वर	-11.2407
▁waking	-11.2412
▁exchange	-11.2415
spite	-11.2416
▁स्वरा	-11.2417
▁समभ्यसेत्	-11.2419
सूत्वा	-11.2419
▁कश्चन	-11.2423
where	-11.2423
▁रखी	-11.2425
वयं	-11.2426
▁पृथ्वी	-11.2427
ितुं	-11.2427
च्युत	-11.2427
लक्ष्य	-11.2429
▁तुभ्य	-11.243
▁search	-11.243
र्च	-11.2436
ling	-11.2439
▁adopt	-11.2441
▁सोचा	-11.2444
stones	-11.2444
▁लाल	-11.2444
▁variety	-11.2446
▁error	-11.2446
साम	-11.2449
▁confident	-11.2452
▁जीवति	-11.2453
▁Rama	-11.2455
K	-11.2456
▁अष्ट	-11.2457
▁destroyed	-11.2459
रव	-11.2462
▁bear	-11.2466
पत्य	-11.2468
▁grief	-11.2468
ari	-11.2469
▁bar	-11.2469
▁रुद्राय	-11.2474
घि	-11.2475
▁artist	-11.2476
▁De	-11.2477
त्रो	-11.2482
्ञ	-11.2482
▁छोटे	-11.2482
▁यत्त	-11.2485
वाय	-11.2488
▁twist	-11.249
▁विधिना	-11.2494
▁repetition	-11.2494
▁contains	-11.2497
▁x	-11.25
ादिषु	-11.2502
ani	-11.2508
▁भोजन	-11.2508
▁doesn	-11.2509
मनो	-11.251
ूनां	-11.2511
▁chahe	-11.2511
नीय	-11.2511
▁caf	-11.2516
ja	-11.2517
शायुपनिषत्सु	-11.2518
▁सहख	-11.2521
▁लक्ष्मी	-11.2522
Y	-11.2524
▁preserve	-11.2526
▁जीवा	-11.2529
▁मंत्र	-11.2534
रक्त	-11.2535
येन	-11.2536
▁प्रथमाध्याय	-11.254
▁ISRO	-11.254
▁afraid	-11.254
▁crazy	-11.254
▁genuine	-11.254
▁positivity	-11.254
▁unexpected	-11.254
▁chaos	-11.254
▁industrial	-11.254
▁management	-11.2541
ादित्य	-11.2545
▁corresponding	-11.2545
वत्य	-11.2548
कामा	-11.2548
▁shuruat	-11.2548
▁भावो	-11.2548
▁एतेषा	-11.255
▁अकार	-11.2551
ोपदेश	-11.2551
कला	-11.2554
▁resources	-11.2555
▁लय	-11.2555
Hindustani	-11.2556
▁pet	-11.256
▁sand	-11.2562
▁therein	-11.2565
▁जह	-11.2565
▁हत्या	-11.2567
▁कृते	-11.2568
ेह	-11.2568
▁मत्वा	-11.2569
▁मामेव	-11.2572
स्मै	-11.2572
ातीत	-11.2573
▁भवन्त	-11.2574
▁identical	-11.2576
▁Selfs	-11.2577
nî	-11.2583
▁द्व	-11.2586
Yes	-11.2589
▁divided	-11.2589
ान्तिः	-11.2592
स्प	-11.2594
gaon	-11.2599
▁तन्म	-11.26
▁avidyâ	-11.2601
▁upper	-11.2604
४१	-11.2605
▁banne	-11.2607
▁निष्कल	-11.2608
▁check	-11.2609
stotra	-11.2609
ेश	-11.2609
▁paper	-11.2615
मत्र	-11.2622
भद्रं	-11.2628
▁द्य	-11.263
▁इच	-11.263
▁law	-11.2631
▁recent	-11.2632
▁योगो	-11.2634
▁अंग्रेज	-11.2635
▁सप	-11.2635
▁Instead	-11.2635
▁principal	-11.2635
▁Mother	-11.2636
ाल	-11.2636
▁वानप्रस्थ	-11.2637
▁Aw	-11.2638
▁early	-11.2639
▁awakening	-11.264
▁recognised	-11.2641
▁save	-11.2643
....”	-11.2643
विदो	-11.2644
▁14,	-11.2644
▁मन्यन्ते	-11.2647
▁विहाय	-11.265
▁ष	-11.265
▁hit	-11.2652
▁परमो	-11.2652
घी	-11.2653
▁जिज्ञासा	-11.2654
▁साढ़े	-11.2656
▁endowed	-11.2658
ूं	-11.2659
▁sites	-11.266
▁पदार्थ	-11.2662
.........)	-11.2663
▁actors	-11.2665
३३	-11.2667
युत	-11.2672
▁shift	-11.2672
▁attain	-11.2672
▁मारुत	-11.2673
▁rests	-11.2674
▁वृत्ति	-11.2675
३९	-11.2677
नर	-11.268
▁active	-11.2681
▁बहि	-11.2685
▁instrument	-11.2685
▁blood	-11.2685
▁42	-11.2685
प्त	-11.2686
▁appearance	-11.2686
दिव	-11.2688
▁insight	-11.2691
ासनं	-11.2693
कोश	-11.2693
▁यया	-11.2694
▁पुव	-11.2695
▁convey	-11.2695
ष्टा	-11.2696
▁Âdityas	-11.2699
▁chuk	-11.2704
▁धारये	-11.2708
▁16.	-11.271
▁व्यास	-11.2711
▁चिज्ञान	-11.2711
िद्धि	-11.2715
क्ष्यामि	-11.2716
 2;	-11.2719
▁ढूं	-11.272
▁l	-11.2723
▁रच	-11.2724
▁hasi	-11.2725
upreme	-11.2728
▁आँख	-11.2731
▁जाति	-11.2731
▁curds	-11.2731
▁glory	-11.2731
▁duties	-11.2731
▁सिस्टर	-11.2731
▁Singh	-11.2731
▁innovative	-11.2731
▁designation	-11.2732
▁sitting	-11.2732
▁However	-11.2732
▁tad	-11.2733
▁milenge	-11.2733
▁plate	-11.2733
▁hawa	-11.2735
▁aankho	-11.2737
▁होंगी	-11.2738
mi	-11.2739
▁gehra	-11.2739
▁expressly	-11.274
222.	-11.2742
▁concerned	-11.2744
▁padhai	-11.2745
▁46	-11.2748
▁jao	-11.275
▁Sây	-11.2751
▁याज्ञवल्क्येति	-11.2752
यज्ञ	-11.2753
,--'	-11.2753
▁vast	-11.2756
मङ्ग	-11.2758
▁सूचित	-11.2759
▁outfits	-11.276
having	-11.2761
▁Na	-11.2761
▁separated	-11.2764
▁buddhi	-11.2766
▁Aditi	-11.2766
▁बचा	-11.2768
▁cultures	-11.2768
▁Tab	-11.2769
वतेते	-11.277
▁intended	-11.277
'),	-11.277
्‍य	-11.2773
▁reveals	-11.2773
ाश	-11.2773
▁बहुवचन	-11.2773
▁भज	-11.2774
▁दुश	-11.2774
चः	-11.2774
▁कामो	-11.2775
▁देहो	-11.2776
▁householder	-11.2776
पूरे	-11.2777
▁शीत	-11.2779
pra	-11.2779
ोत्तम	-11.278
▁शम	-11.2781
▁situation	-11.2783
▁समक्ष	-11.2784
▁bola	-11.2784
ai	-11.2785
▁...........	-11.2787
▁षड	-11.2789
▁jars	-11.2793
▁sea	-11.2795
▁saree	-11.2796
रहस्य	-11.2796
▁chant	-11.2797
▁dependent	-11.2798
सारी	-11.2798
▁प्रियं	-11.2803
गं	-11.2804
▁आना	-11.2804
▁39	-11.2805
भ्र	-11.2807
नात्र	-11.2813
▁fabric	-11.2814
tâ	-11.2814
▁वदिष्या	-11.2815
rs	-11.2817
▁पाप्मा	-11.2817
▁मुनि	-11.2822
द्यो	-11.2824
▁स्याद	-11.2825
▁compare	-11.2827
▁Krishna	-11.2828
▁guidance	-11.2828
▁library	-11.2828
▁चिंतित	-11.2828
▁atomic	-11.2829
▁cities	-11.2829
▁prosperity	-11.2829
▁डे	-11.2829
▁एतेन	-11.2829
▁OF	-11.283
▁smoke	-11.2833
▁गता	-11.2839
▁रूपाणि	-11.2841
▁warm	-11.2841
श्चैव	-11.2842
▁jeen	-11.2847
▁दूध	-11.2848
▁star	-11.2849
▁अभ	-11.2853
▁measured	-11.2856
tion	-11.2856
▁lived	-11.2857
▁स्प	-11.2858
▁विन	-11.2859
ंस	-11.2864
प्रमाण	-11.2864
who	-11.2865
विर	-11.2866
▁विद्वान	-11.2868
▁कन्द	-11.2868
द्वि	-11.287
▁भरत	-11.2873
▁instruments	-11.2874
िरे	-11.2875
▁स्वस	-11.2876
▁attempt	-11.2878
▁स्वतः	-11.2878
▁खान	-11.288
iyon	-11.288
▁ओंकार	-11.2887
▁व्	-11.2888
▁तत्सम	-11.2888
क्षत्राणि	-11.2891
▁यक्ष	-11.2892
▁Non	-11.2892
श्रम	-11.2894
▁दूसरी	-11.2898
▁ache	-11.2901
मर्थ	-11.2904
ुम्	-11.2905
▁रोग	-11.2905
▁मूर्ति	-11.2906
▁चकार	-11.2908
▁दिश	-11.2909
▁appropriate	-11.2913
▁विद्य	-11.2914
▁सेवा	-11.2917
▁निव	-11.2921
त्थ	-11.2924
४२	-11.2924
▁Indeed	-11.2926
▁declaring	-11.2926
▁enthusiasm	-11.2926
▁mystery	-11.2926
▁responsibility	-11.2926
▁shuruwat	-11.2926
▁सन्‍धि	-11.2926
▁Komal	-11.2926
▁insaan	-11.2926
▁आश्वस्त	-11.2927
pervading	-11.2927
▁यमयत्येष	-11.2927
▁जुहोमि	-11.2929
▁तद्यथा	-11.2929
▁momentary	-11.2929
▁notice	-11.2933
▁प्रविशति	-11.2934
▁अस्म	-11.2937
▁Purusha	-11.2937
र्ज	-11.2938
▁ahead	-11.2938
भं	-11.2939
▁खाल	-11.294
▁९२	-11.294
▁यज	-11.2942
▁फूल	-11.2942
bh	-11.2945
▁भीड़	-11.2946
क्षु	-11.2947
▁अहमेव	-11.2947
▁मिथुन	-11.2948
▁U	-11.2949
▁उपस्थित	-11.295
▁plant	-11.2958
▁रामचन्द्रपद	-11.2958
leti	-11.2962
▁दष्ट	-11.2962
▁कथय	-11.2964
▁रसो	-11.2966
king	-11.2967
▁तथेव	-11.2969
▁कल्पते	-11.297
वव	-11.2971
▁gains	-11.2972
श्या	-11.2972
▁yoke	-11.2973
.--'	-11.2974
▁sing	-11.2974
मान्	-11.2977
▁gîva	-11.2978
▁तद्वि	-11.2984
▁पूत	-11.2985
▁यद्वा	-11.2986
▁गगन	-11.2987
साधन	-11.2988
▁praises	-11.299
▁पिङ्गला	-11.2992
▁model	-11.2994
▁Adhik	-11.2997
▁कट	-11.2997
ho	-11.2998
ोदय	-11.2998
▁नारा	-11.3
▁इल	-11.3002
▁aapk	-11.3003
▁यानी	-11.3006
ब्ध	-11.3006
माः	-11.3011
▁रक्ष	-11.3012
▁मन्नेण	-11.3012
▁लोकस्य	-11.3016
▁देवेभ्य	-11.3016
▁बच	-11.3023
▁सद्	-11.3025
▁Explor	-11.3025
▁चन्द्रमा	-11.3025
▁thrice	-11.3026
▁belief	-11.3026
▁earlier	-11.3026
▁अलावा	-11.3026
▁गहरी	-11.3026
▁mango	-11.3027
ापः	-11.3027
▁grand	-11.3028
▁देंगे	-11.3029
▁स्थित्वा	-11.303
ज्न	-11.3031
३२	-11.3031
▁एकदम	-11.3033
देति	-11.3033
▁noticed	-11.3034
▁जानना	-11.3034
ोड	-11.3035
मित	-11.3043
▁वायव	-11.3044
▁38	-11.3045
्रो	-11.3046
▁pronounces	-11.3046
▁manifestation	-11.3049
sun	-11.3049
▁mysterious	-11.305
यौ	-11.3051
▁पुलिस	-11.3051
गुरु	-11.3054
भेद	-11.3058
पण	-11.3059
▁उद्	-11.3061
▁लीन	-11.3061
ंत	-11.3067
▁barhis	-11.307
ष्टं	-11.3072
layer	-11.3074
▁41	-11.3077
ever	-11.3078
▁Be	-11.308
ोंकार	-11.308
▁sunao	-11.308
▁अपा	-11.308
▁बने	-11.3081
food	-11.3081
▁writing	-11.3082
▁choo	-11.3082
Being	-11.3084
▁निष्क्रान्त	-11.3084
▁implied	-11.3084
▁SE	-11.3085
▁तपोवन	-11.3087
व्यय	-11.3088
▁हीद	-11.3088
▁वचन	-11.3089
 3,	-11.3089
हीनोऽस्म	-11.3089
▁battle	-11.309
▁poets	-11.309
रपि	-11.3091
▁व्र	-11.3094
स्ततो	-11.3094
▁कं	-11.3094
▁प्रतिष्ठितम्	-11.3096
ात्मने	-11.3098
▁बाप	-11.3101
▁खिय	-11.3102
▁forming	-11.3103
▁विप्र	-11.3104
▁paths	-11.3105
ुद	-11.3106
व्‍	-11.3112
▁sweets	-11.3112
▁स्वे	-11.3114
▁सांख्य	-11.3115
▁सड़क	-11.3117
▁mortal	-11.3119
▁सर्वेषा	-11.3124
श्रमजीवा	-11.3125
▁Trishtubh	-11.3125
▁Vâgapeya	-11.3125
▁स्लेट	-11.3125
▁tourism	-11.3125
▁tasty	-11.3125
▁production	-11.3126
▁highlight	-11.3126
▁banogi	-11.3126
▁dekhenge	-11.3127
▁workout	-11.3127
▁bataya	-11.3128
वध	-11.3131
▁घंटे	-11.3132
मभ्य	-11.3133
क्षण	-11.3134
▁१०१	-11.3134
▁१०६	-11.3135
▁१०४	-11.3136
▁bolte	-11.3136
▁बृहस्पति	-11.3136
▁शहर	-11.3137
▁१०३	-11.3137
▁carrying	-11.3139
▁Should	-11.314
▁ity	-11.314
▁tourists	-11.314
द्धा	-11.3147
▁experiencing	-11.315
▁waves	-11.315
▁total	-11.3159
▁seated	-11.316
जः	-11.3162
▁दिख	-11.3162
▁तदेक	-11.3162
युक्ता	-11.3162
पदा	-11.3164
▁अखबार	-11.3164
▁विपरीत	-11.3164
▁imagined	-11.3165
फा	-11.3166
ोऽहम	-11.3166
त्ता	-11.3167
▁इढ	-11.3169
▁पश्चिम	-11.3169
▁â	-11.3171
▁qualification	-11.3171
▁Sruti	-11.3171
▁मर	-11.3172
पुष्प	-11.3177
goat	-11.318
▁आदेश	-11.3181
वर्त	-11.3181
स्तद	-11.3181
▁यूय	-11.3182
ान्ते	-11.3183
▁fee	-11.3183
▁सामान	-11.3186
ram	-11.3188
िष्य	-11.3189
▁सीख	-11.319
▁board	-11.319
त्रा	-11.319
▁brahma	-11.3191
▁देही	-11.3191
▁XIII	-11.3193
▁acquire	-11.3193
▁भक्त	-11.3195
▁hearth	-11.3196
pur	-11.3198
▁वृत्त	-11.3201
चेतसा	-11.3203
ास्य	-11.3206
▁dweller	-11.321
ूम	-11.3212
▁निद्रा	-11.3213
▁Ye	-11.3215
▁पतिः	-11.3217
घो	-11.3217
तत	-11.3218
▁ङु	-11.3219
▁crowd	-11.3224
▁easily	-11.3226
▁welcome	-11.3226
▁community	-11.3226
▁Nature	-11.3227
▁संस्कृत	-11.3227
▁अना	-11.3228
▁सद्यो	-11.3228
▁प्रयत्न	-11.3229
नात्	-11.3229
भ्	-11.3229
▁पहाड़	-11.323
▁addressed	-11.3231
▁गुरो	-11.3234
▁necessarily	-11.3237
:/	-11.324
▁बाध्य	-11.324
▁संयोग	-11.3246
ुम	-11.3246
ुप	-11.3249
▁विवाद	-11.325
▁merit	-11.325
▁Brâhmanas	-11.325
▁तद्वा	-11.3254
▁मन्ये	-11.3258
विचार	-11.326
▁अवस्था	-11.3267
द्यते	-11.3269
र्भ	-11.3269
▁lover	-11.3273
▁कुण्डलिनी	-11.3274
▁रमते	-11.3276
फळ	-11.3276
▁Manu	-11.3278
ह्य	-11.328
▁ब्रह्मेव	-11.328
▁हँस	-11.3281
▁पै	-11.3281
मिह	-11.3282
▁written	-11.3284
मीति	-11.3285
ाभ्यास	-11.3286
 4	-11.3292
षिणी	-11.3293
life	-11.3294
र्प	-11.3295
त्व॑	-11.3295
▁शरीरे	-11.3298
▁गुहाया	-11.3301
▁विश्वामित्र	-11.3302
▁धार	-11.3303
▁karman	-11.3304
▁११०	-11.3305
had	-11.3307
ji	-11.3308
हां	-11.3309
▁सम्यक्	-11.3309
▁साधारण	-11.331
▁कण	-11.331
▁प्रपद्ये	-11.331
रेष	-11.3316
II	-11.3316
yaan	-11.3317
▁Chand	-11.3317
▁पाने	-11.3319
विवर्जितः	-11.3319
▁कुतो	-11.3319
र्ध	-11.3319
▁imply	-11.332
▁हन्त	-11.3321
▁गज	-11.3322
५७	-11.3322
▁तनु	-11.3323
▁tip	-11.3323
▁जिनक	-11.3324
▁emotional	-11.3327
vat	-11.3327
▁gross	-11.3328
▁cheer	-11.3328
▁chehre	-11.3328
▁divinity	-11.3328
▁hilarious	-11.3328
▁intriguing	-11.3328
▁Stories	-11.3328
▁concluding	-11.3328
▁internship	-11.3329
▁photography	-11.3329
▁characterised	-11.3329
▁ज्यादा	-11.3329
▁achi	-11.3332
▁chanted	-11.3333
▁Go	-11.3334
way	-11.3335
▁हफ्ते	-11.3335
▁करेगी	-11.3337
▁उठकर	-11.3337
पदे	-11.3343
▁seemed	-11.3344
▁savings	-11.3344
323.	-11.3347
्‍त	-11.335
त्युपनिषत्	-11.3352
▁organize	-11.3353
▁Challenge	-11.3353
▁संध्या	-11.3355
▁address	-11.3355
▁pot	-11.336
▁evident	-11.3361
▁Yâg	-11.3361
▁अवस्त	-11.3361
▁चन्द्रमस	-11.3361
▁संतोष	-11.3362
▁ध्याय	-11.3365
चल	-11.3365
▁मिले	-11.3365
४०	-11.3372
त्मक	-11.3372
नित्यं	-11.3372
ऽस्ति	-11.3373
▁expert	-11.3386
▁classic	-11.3387
ाचु	-11.3388
▁puran	-11.3388
▁नया	-11.3388
िस	-11.3388
▁51	-11.339
▁घोष	-11.3394
▁breathing	-11.3394
्वे	-11.3396
aya	-11.3402
Who	-11.3404
▁संबंध	-11.3405
मन्त	-11.3406
▁37	-11.3407
▁एवाय	-11.3407
▁वयस्य	-11.3408
▁Dr	-11.3409
▁संदेह	-11.3409
tva	-11.3411
▁ब्रह्माण	-11.3411
म्ब	-11.3419
▁गृहीत	-11.342
▁मेधा	-11.3422
▁goal	-11.3424
▁विकार	-11.3424
ळोक	-11.3426
▁Ever	-11.3427
ासु	-11.3431
▁departure	-11.3432
▁complementary	-11.3432
▁apprehension	-11.3432
▁आखिर	-11.3432
ेवं	-11.3432
▁हथेल	-11.3433
▁कष्ट	-11.3434
▁refuted	-11.3437
▁तोड़	-11.3437
▁उठे	-11.344
वदन	-11.344
मेवं	-11.3442
▁government	-11.3445
▁ज्वाला	-11.3445
क्म	-11.3446
तानि	-11.3447
▁महात्मन	-11.3448
▁Books	-11.3448
▁specially	-11.3449
▁चक्षुषा	-11.345
४६	-11.3453
▁अझ	-11.3453
करण	-11.3454
राग	-11.3455
२१	-11.3456
▁बाला	-11.3456
▁इन्द्रिय	-11.3457
▁enlightenment	-11.3457
▁creates	-11.3459
▁table	-11.3459
▁सुवर्ण	-11.3459
▁driven	-11.3459
▁gain	-11.3459
▁harm	-11.346
कृ	-11.3461
ज्या	-11.3465
▁योऽस	-11.3467
▁दया	-11.3471
स्येव	-11.3471
▁reveal	-11.3476
▁चेतन	-11.3477
▁lit	-11.3477
▁badht	-11.348
जीवति	-11.348
▁पश्याम	-11.348
▁ज्येष्ठ	-11.3482
▁originated	-11.3483
सुद्	-11.3483
भत	-11.3484
▁कामयत	-11.3484
स्तदा	-11.3487
हाँ	-11.3488
?’	-11.3489
▁vacation	-11.3491
▁compliment	-11.3491
▁rituals	-11.3493
तोऽ	-11.3494
tu	-11.3496
▁dino	-11.3498
▁नित्यम	-11.3499
क्षेप	-11.3499
मूल	-11.35
▁Ku	-11.3501
▁लेता	-11.3501
ेघु	-11.3507
▁महायोग	-11.3507
▁भरा	-11.3507
▁skill	-11.3508
▁car	-11.3509
स्तृतीय	-11.3514
ुक्त	-11.3519
▁तेभ्यो	-11.352
▁पिछल	-11.352
▁symbol	-11.3521
्‍‍म्	-11.3523
▁glow	-11.3526
रोऽ	-11.3528
▁parallel	-11.3536
COND	-11.3536
▁Pradesh	-11.3536
▁division	-11.3536
▁तान्होवाच	-11.3536
▁जैसा	-11.3536
▁leaving	-11.3536
▁९६	-11.3539
▁होंठ	-11.3539
त्वान्न	-11.354
▁उन्ही	-11.3541
त‍म	-11.3544
▁twofold	-11.3545
▁मन्यते	-11.3546
▁सुनकर	-11.3547
▁separately	-11.3548
▁स्वाहे	-11.3548
▁Bye	-11.3551
▁यजन्ति	-11.3551
▁शुभ	-11.3553
wooden	-11.3555
जान	-11.3555
▁karu	-11.3556
▁Death	-11.3558
▁bridge	-11.356
▁zaruri	-11.3561
रह	-11.3565
▁पितु	-11.3565
▁निष्ठा	-11.3566
▁्रह्म	-11.3568
नेत्र	-11.3569
▁आत्मेति	-11.3571
▁imperfections	-11.3572
ाणीति	-11.3572
▁वतेते	-11.3572
▁सखि	-11.3574
▁निरोधयेत्	-11.3574
दण्ड	-11.3574
▁वर्ग	-11.3575
▁अस्मि	-11.3575
▁understands	-11.3578
ोद	-11.358
▁gifts	-11.358
▁proves	-11.3583
▁Remember	-11.3583
▁व्यवस्था	-11.3584
▁negative	-11.3588
▁तन्मे	-11.359
▁Coffee	-11.359
▁किम	-11.3591
▁नृसिंहो	-11.3594
▁drop	-11.3594
▁Speech	-11.3595
▁narrative	-11.3596
▁दिवस	-11.3597
other	-11.3598
भौ	-11.3598
काळ	-11.3601
▁हिरण्य	-11.3604
मस	-11.3605
▁लु	-11.3608
▁Look	-11.3608
▁vessels	-11.3615
H	-11.3615
ग्य	-11.3616
भावना	-11.3617
▁ईश	-11.3617
▁दिशः	-11.362
▁generations	-11.362
âm	-11.3622
▁sessions	-11.3624
▁pan	-11.3628
▁केश	-11.3629
▁mighty	-11.3629
धावति	-11.363
▁event	-11.3633
▁Pro	-11.3633
▁Stud	-11.3639
inary	-11.3639
ैनं	-11.364
▁FIRST	-11.3641
▁contemporary	-11.3641
▁remembrance	-11.3641
▁स्वयम	-11.3641
▁गहरा	-11.3641
▁rose	-11.3641
▁snow	-11.3642
nce	-11.3643
id	-11.3645
▁parties	-11.3645
▁assigned	-11.3645
▁वाच्य	-11.3646
▁united	-11.3646
मीश्वर	-11.3647
▁flying	-11.3647
▁fragments	-11.3648
most	-11.3652
टर	-11.3654
▁sons	-11.3659
▁published	-11.366
महा	-11.3661
▁caused	-11.3661
▁चीख	-11.3661
▁नृत्य	-11.3662
▁revealed	-11.3664
ारूढ	-11.3664
▁वाचि	-11.3669
▁bhai	-11.3672
िश	-11.3673
रक्ष	-11.3675
ायतन	-11.3675
▁actual	-11.3677
▁जल्दी	-11.3682
▁राजस	-11.3684
▁भवतः	-11.3685
▁झान्ति	-11.3687
▁53	-11.3688
▁5)	-11.3688
▁insights	-11.369
▁वर्तमान	-11.3693
▁तै	-11.3694
सागर	-11.3695
▁realization	-11.3695
ार्थं	-11.3697
तेन	-11.3698
▁bestow	-11.3699
▁phrase	-11.3702
pen	-11.3703
▁marked	-11.3704
▁ज्ञा	-11.3704
▁सन्तु	-11.3705
क्षय	-11.3707
▁सक	-11.3708
▁sage	-11.3708
▁distance	-11.371
पाश	-11.3712
यी	-11.3712
यू	-11.3714
यतीति	-11.3718
▁तृण	-11.372
कृत्	-11.3725
नम	-11.3731
ल्प	-11.3732
▁laugh	-11.3733
▁इष्टि	-11.3734
▁mentions	-11.3736
▁यन्	-11.3736
▁cul	-11.3737
वणे	-11.3738
old	-11.3739
▁pull	-11.374
▁संपूर्ण	-11.3741
▁calm	-11.3744
▁जनक	-11.3746
पिता	-11.3747
▁Preeti	-11.3747
▁Romantic	-11.3747
▁jaisi	-11.3747
▁melody	-11.3747
▁समबोधन	-11.3747
▁ठिित	-11.3747
▁Mahîdhara	-11.3747
▁mythology	-11.3747
▁dhadkan	-11.3747
▁hamein	-11.3747
▁fragmented	-11.3748
▁dating	-11.3748
▁sword	-11.3748
▁विलोक्य	-11.3749
▁cab	-11.3749
मित्याह	-11.3749
▁Yahan	-11.3749
▁wild	-11.375
▁57	-11.375
द्यः	-11.375
▁designated	-11.3751
▁ब्रह्मचारी	-11.3751
▁somewhat	-11.3751
ुओं	-11.3752
▁त्रिकोण	-11.3752
▁projects	-11.3753
▁concerning	-11.3753
▁जपेत्	-11.3755
▁्‍था	-11.3755
Of	-11.3755
▁Theek	-11.3756
शाहब	-11.3756
ोपरि	-11.3762
दपि	-11.3763
▁Tom	-11.3763
▁उपनिषद्	-11.3763
▁fashioned	-11.3765
▁19.	-11.3767
▁श्रूयते	-11.3768
▁कव	-11.3771
▁मूढ	-11.3772
▁Sa	-11.3772
हय	-11.3774
कितनी	-11.3778
घन	-11.3778
▁resting	-11.378
▁मानव	-11.378
मौ	-11.378
▁कुम्भ	-11.3782
रसः	-11.3782
▁परस्ता	-11.3784
has	-11.3785
▁समाप्त	-11.3786
▁स्पर्श	-11.3786
यान	-11.379
▁changed	-11.3792
▁reflected	-11.38
▁षड्	-11.38
▁खोली	-11.3803
▁सुविधा	-11.3804
्‍े	-11.3805
ाज	-11.3807
▁विस्मय	-11.3809
▁judgment	-11.381
▁mountain	-11.381
▁निर्विकार	-11.3811
▁deserve	-11.3814
▁issue	-11.3814
तमः	-11.3825
नाद	-11.3825
▁ब्राह्मणो	-11.3825
िच	-11.3825
▁जायमान	-11.3828
▁प्रत	-11.3829
▁राजान	-11.383
▁कळा	-11.383
िम	-11.383
▁सुत	-11.3831
यामास	-11.3833
ार्थे	-11.3837
▁शङ्क	-11.3837
▁पञ्चदश	-11.3837
धीः	-11.3841
ही	-11.3841
▁avoid	-11.3843
▁comfort	-11.3845
ित्य	-11.3846
साव	-11.3848
निषत्	-11.3849
▁इत्येक	-11.3849
▁intellect	-11.385
ध्ये	-11.3852
▁global	-11.3852
▁वैराग्य	-11.3853
▁सुंदर	-11.3854
Because	-11.3855
▁confusion	-11.3855
▁crucial	-11.3855
▁26-	-11.3857
▁लीयते	-11.3858
▁शिवो	-11.3861
▁प्रोच्यते	-11.3861
साध्य	-11.3864
▁possessed	-11.3865
▁ल्	-11.3866
▁जिससे	-11.3869
ping	-11.387
▁छोड़कर	-11.387
▁उठते	-11.3873
▁रमा	-11.3873
▁कन्या	-11.3873
▁asar	-11.3876
▁claim	-11.3876
ating	-11.3877
▁bhare	-11.3881
ng	-11.3885
पतिः	-11.3893
▁स्वाभाविक	-11.3893
▁समो	-11.3895
सडु	-11.3899
▁games	-11.3899
ोऽस्य	-11.3903
▁क्ष	-11.3905
▁intimates	-11.3908
ोद्	-11.391
परमं	-11.3913
▁flowing	-11.3913
नस्	-11.3916
VR	-11.392
▁सर्ग	-11.3929
▁concepts	-11.393
▁नाक	-11.3932
▁दक्षिणे	-11.3932
▁युज्यते	-11.3932
४९	-11.3933
▁मांग	-11.3934
▁undergo	-11.3935
ीणि	-11.3937
▁syllable	-11.3938
हत	-11.3938
▁training	-11.3938
cup	-11.394
▁extend	-11.3941
ह्म	-11.3952
▁kahan	-11.396
▁prepare	-11.396
▁embryo	-11.396
▁शं	-11.3961
▁Un	-11.3961
▁ददाम	-11.3963
▁इश्वर	-11.3963
▁          	-11.3964
▁spake	-11.3964
▁खयाल	-11.3964
▁opposed	-11.3964
▁त्रीणि	-11.3964
▁प्रज्वलित	-11.3965
▁जाएंगे	-11.3965
▁द्विधा	-11.3966
▁अर्जुन	-11.3967
▁रास्ते	-11.3968
▁dekhe	-11.3971
ayenge	-11.3972
▁जळ	-11.3974
▁limbs	-11.3976
▁male	-11.3977
▁43	-11.3979
जातानि	-11.3979
मोह	-11.398
▁मातृ	-11.3981
▁स्फुट	-11.3983
▁बनकर	-11.3984
▁सर्वलोक	-11.3984
हस्ता	-11.3984
side	-11.3989
▁वव	-11.3992
▁completed	-11.3994
▁सायुज्य	-11.3996
पथ	-11.3998
▁craft	-11.3998
▁य॒	-11.3999
ड़ा	-11.4
▁sad	-11.4006
मूले	-11.4012
▁गोप	-11.4012
▁त्रिविध	-11.4021
▁supporting	-11.4023
▁wonder	-11.4023
▁period	-11.4025
▁describe	-11.4026
▁धनुष	-11.4027
▁Vâk	-11.4027
▁यादव	-11.4027
▁danger	-11.4028
▁सूर्यः	-11.4028
▁ears	-11.4028
▁differ	-11.4029
▁कुर्या	-11.4029
रय	-11.4031
वां	-11.4031
▁numbers	-11.4032
ष्ठा	-11.4032
▁शिरो	-11.4033
▁दरवाज	-11.4036
▁Pûshan	-11.4036
ध्या	-11.4036
दशन	-11.4038
hu	-11.4038
यन्तु	-11.4038
▁असल	-11.4039
▁नासिक	-11.4039
▁संव	-11.4041
van	-11.4044
▁मिथ्या	-11.4053
ce	-11.4058
▁लक्षण	-11.4061
▁दुख	-11.4063
▁reflect	-11.4064
▁योगेन	-11.407
४३	-11.407
▁मनुः	-11.4073
▁convenient	-11.4073
▁extent	-11.4073
▁flesh	-11.4073
▁खिड़की	-11.4073
▁गन्तव्य	-11.4073
▁ceremonies	-11.4073
▁recension	-11.4073
avalkya	-11.4074
▁राजनीति	-11.4074
▁स्वतंत्र	-11.4074
▁अश्व	-11.4078
nam	-11.4078
हस्त	-11.4078
▁Hai	-11.408
▁मर्द	-11.408
▁बांध	-11.4081
▁opinions	-11.4081
▁दूसरा	-11.4081
▁lately	-11.4083
त्रयं	-11.4084
▁Mîmâmsâ	-11.4085
▁rehn	-11.4086
▁दर	-11.4087
▁hot	-11.4088
▁hours	-11.409
▁lying	-11.409
treating	-11.4091
लेकिन	-11.4091
▁jisk	-11.4092
▁illusions	-11.4092
.........	-11.4093
वम्	-11.4094
▁एथिव्या	-11.4095
x	-11.4096
▁सुनते	-11.4097
▁परां	-11.4099
मच	-11.41
W	-11.4101
▁देहमध्य	-11.4105
▁मत्त	-11.4106
▁repeated	-11.4108
▁bolu	-11.4108
▁unseen	-11.4108
▁AND	-11.4112
निर्	-11.4115
▁hug	-11.4116
lu	-11.4119
▁मृग	-11.412
▁मल	-11.4121
▁distant	-11.4124
▁thoughtful	-11.4126
▁प्र्‍ोग	-11.4127
▁त्याग	-11.4129
▁पश्यन्	-11.413
▁चिट्ठी	-11.4131
दूर	-11.4134
▁reward	-11.4135
▁picture	-11.414
▁amount	-11.4142
राह	-11.4145
vid	-11.4145
मानन्द	-11.4149
▁ताई	-11.415
▁आसन	-11.4153
▁manifests	-11.4161
ेल	-11.4164
▁King	-11.4164
▁meditating	-11.417
▁ळोक	-11.417
शील	-11.4171
ोऽप्य	-11.4172
योज्य	-11.4175
माहु	-11.4175
▁cognitions	-11.418
▁17.	-11.4181
▁तडु	-11.4181
तब	-11.4182
▁cuts	-11.4182
▁Jerry	-11.4185
▁television	-11.4185
▁available	-11.4185
▁cosmic	-11.4185
▁Excited	-11.4185
▁jaayenge	-11.4185
▁Another	-11.4186
मोक्ष	-11.4186
▁begun	-11.4186
▁padhne	-11.4187
▁advancements	-11.4187
▁महीयते	-11.4188
▁कीलकम्	-11.4188
▁सर्वमायुर	-11.4188
▁vow	-11.4188
▁इत्याह	-11.4189
नामा	-11.4192
▁ददाति	-11.4195
▁इतिहास	-11.4196
▁desi	-11.4196
▁approaches	-11.4197
▁जीवन्ति	-11.4206
▁तदेतद	-11.4208
द्वेत	-11.4212
▁छत	-11.4213
क्रमेण	-11.4214
▁जुष्ट	-11.4214
▁stream	-11.4215
▁woven	-11.4218
▁कृष्णाय	-11.4219
क्तः	-11.422
12	-11.422
लम	-11.4221
ena	-11.4221
धीते	-11.4226
ऽयं	-11.4226
▁यति	-11.4228
डो	-11.4228
धेन	-11.4228
यतः	-11.423
ata	-11.423
▁wins	-11.4231
▁La	-11.4232
▁Pra	-11.4233
भस्म	-11.4236
▁banati	-11.4239
कृतो	-11.4241
▁69	-11.4241
▁59	-11.4241
▁birds	-11.4242
यर	-11.4243
▁involve	-11.4244
माकृष्य	-11.4244
ava	-11.4246
tar	-11.4246
▁विद	-11.4246
▁abandon	-11.4246
▁abide	-11.4247
▁्‍या	-11.4249
▁श्रोत्रेण	-11.425
सन्त	-11.4251
▁mirror	-11.4252
मम	-11.4253
▁kindled	-11.4255
दर्शन	-11.4258
▁नित्यः	-11.4259
▁कारणम्	-11.4259
श्री	-11.426
▁चित्ते	-11.4264
▁asli	-11.4264
▁sits	-11.4264
▁कुम्भक	-11.4267
परा	-11.4267
▁चारु	-11.4269
▁खिला	-11.427
ât	-11.427
तिष्ठते	-11.4272
▁उतार	-11.4273
▁बलि	-11.4273
▁दुर्	-11.4273
▁answers	-11.4274
ोऽस्म्यहस्	-11.4277
▁सँ	-11.428
▁लोकल	-11.4281
▁जिन	-11.4282
".	-11.4282
▁विरुद्ध	-11.4282
▁त्वम्	-11.4286
▁circle	-11.4287
ated	-11.4287
▁हस	-11.4288
▁चाल	-11.4288
षण	-11.429
करा	-11.4293
▁operative	-11.4295
▁अहिंसा	-11.4295
▁यज्	-11.4296
▁खतर	-11.4296
रक	-11.4296
▁पञ्चमः	-11.4297
▁ADHYÂYA	-11.4297
▁exploration	-11.4297
▁sprung	-11.4297
▁destiny	-11.4297
▁applies	-11.4297
लाने	-11.4297
8-20	-11.4297
▁प्रशिक्षण	-11.4297
विरोष	-11.4298
▁Sûrya	-11.4298
▁विशाल	-11.4298
▁इदानीं	-11.4299
▁till	-11.4299
▁humanity	-11.43
▁difficulty	-11.4301
▁Dekh	-11.4304
▁determined	-11.4305
▁samajhn	-11.4306
▁मति	-11.4306
▁तथे	-11.4309
▁cloud	-11.4311
यान्	-11.4312
▁प्रजापते	-11.4316
४४	-11.4318
▁18.	-11.4318
चिद	-11.4319
▁startups	-11.432
▁आचार्य	-11.432
वादी	-11.4323
▁60	-11.4323
▁areas	-11.4323
▁techniques	-11.4328
▁महेश्वर	-11.4329
▁गुणा	-11.433
▁constructed	-11.4331
▁लघु	-11.4333
▁principles	-11.4334
मये	-11.4335
▁verb	-11.4335
▁साहस	-11.4337
▁याव	-11.4339
▁Reality	-11.4341
▁परिवार	-11.4341
ाच्च	-11.4341
▁upar	-11.4342
▁कितन	-11.4346
विश्वास	-11.4346
प्यते	-11.4347
घात	-11.4347
माने	-11.4351
▁enjoin	-11.4352
▁बेहतर	-11.4356
▁गुरू	-11.4358
▁छू	-11.4361
▁विधे	-11.4362
▁transform	-11.4362
▁इड	-11.4363
▁धुव	-11.4363
▁ashram	-11.4365
▁video	-11.4366
▁ब्रह्मविद्या	-11.4368
▁काँप	-11.437
णाय	-11.4371
▁Vashat	-11.4372
▁ड्	-11.4372
▁समु	-11.4373
▁गु	-11.4374
▁waal	-11.4375
▁गूढ	-11.4375
वासना	-11.4376
▁प्रार्थना	-11.4377
▁गच्‍छ	-11.4378
▁Sânkhyas	-11.4378
▁पञ्चाक्षर	-11.4386
स्तन	-11.4387
▁चत्वारि	-11.4387
▁related	-11.439
निवृत्ति	-11.4394
कारणम्	-11.4394
ष्टे	-11.4394
▁रमन्त	-11.4399
देक	-11.4399
छ्	-11.4402
▁अवि	-11.4403
ृतं	-11.4403
केन	-11.4406
▁11,	-11.4407
▁recitation	-11.4409
▁जानीयाद्य	-11.4409
IRD	-11.4411
▁Petersb	-11.4411
▁Jaise	-11.4411
▁संघर्ष	-11.4411
▁teamwork	-11.4411
▁paani	-11.4412
▁Sûtrakâra	-11.4412
▁तदितर	-11.4412
▁aapko	-11.4413
▁historical	-11.4414
▁बेटे	-11.4418
▁देगी	-11.4419
▁प्राजापत्य	-11.4421
मेरे	-11.4421
▁प्रतीहार	-11.4421
▁९५	-11.4422
▁fragmentation	-11.4423
▁Vasus	-11.4427
पश्यति	-11.4428
▁hacks	-11.4428
प्रसाद	-11.4429
▁breaks	-11.4431
ati	-11.4432
▁आहु	-11.4432
?'--'	-11.4434
जानाति	-11.4434
▁20.	-11.4434
▁पैद	-11.4438
ज्ञानी	-11.4439
▁भगवती	-11.4439
्युप	-11.444
▁प्रेरित	-11.4441
नाश	-11.4441
च्छति	-11.4443
▁नासाग्र	-11.4444
▁चेच	-11.4445
▁dwells	-11.4446
▁54	-11.4449
▁Apn	-11.4452
▁34	-11.4452
Sacrificer	-11.4452
▁Bri	-11.4453
▁यूनियन	-11.4454
ten	-11.4455
▁enjoins	-11.4455
▁ग्रह	-11.4456
क्यं	-11.4458
रसं	-11.4464
▁starting	-11.4471
न्र	-11.4473
▁बूह	-11.4473
▁बिल	-11.4473
▁स्वाहेत	-11.4475
▁अंज	-11.4476
▁photo	-11.4481
▁शव	-11.4481
छोक	-11.4482
▁द्रष्टा	-11.4486
▁functions	-11.4486
▁निष्क	-11.4488
दौ	-11.4488
▁सहायता	-11.449
▁वज्र	-11.4492
मुप	-11.4493
▁भोज्य	-11.4496
▁seer	-11.4497
▁ध्यायेत्	-11.4497
्द	-11.4498
▁प्राणाः	-11.4501
▁eater	-11.4508
सिद्धि	-11.4508
ात्मकम्	-11.451
▁कस्मि	-11.4514
▁da	-11.4516
▁blind	-11.4517
▁solve	-11.4517
▁ताकत	-11.4518
▁notion	-11.452
▁assign	-11.4521
▁superior	-11.4525
▁flexibility	-11.4526
▁rising	-11.4526
▁folklore	-11.4526
▁entertainment	-11.4526
▁अंदर	-11.4526
▁सुरक्षित	-11.4526
▁Ghar	-11.4526
▁Gî	-11.4526
▁शुक्र	-11.4527
],	-11.4527
▁personality	-11.4527
हितः	-11.4527
▁त्रयोदश	-11.4528
form	-11.4529
▁moral	-11.453
▁पुकार	-11.453
मळ	-11.4532
▁पञच	-11.4533
▁पे	-11.4536
मानस	-11.4537
▁देखो	-11.4538
prepares	-11.4541
▁आवश्यकता	-11.4542
▁रहना	-11.4543
साम्य	-11.4543
▁realm	-11.4544
▁पाठः	-11.4545
brâhmana	-11.4547
▁..........	-11.4548
ुरु	-11.455
▁lovely	-11.4553
▁opening	-11.4553
▁पड़ता	-11.4554
▁समता	-11.4555
ative	-11.4556
vya	-11.4557
▁ब्रजे	-11.4558
काण्ड	-11.4559
▁sour	-11.4561
शून्य	-11.4561
▁खर्च	-11.4562
रत्न	-11.4563
body	-11.4564
âya	-11.4565
▁telling	-11.4567
▁स्युः	-11.4567
▁आवाज	-11.457
Where	-11.4574
▁रम्य	-11.4575
▁ताल	-11.4575
्यम	-11.4576
▁शक्य	-11.4577
▁साफ	-11.4577
ronounce	-11.4577
दत	-11.4579
▁sings	-11.4579
▁अथो	-11.4579
वेश	-11.4581
▁बेल	-11.4581
▁प्रशान्त	-11.4586
▁तथापि	-11.459
▁महत	-11.4593
▁शत्रु	-11.4593
▁detail	-11.4594
▁रज	-11.4595
▁snake	-11.4596
▁sector	-11.4597
▁happens	-11.4597
▁modes	-11.4597
▁task	-11.4598
▁अक	-11.46
▁प्रात	-11.4602
▁लोहित	-11.4603
डि	-11.4604
शिष्यते	-11.4607
wise	-11.461
ाशी	-11.4612
formulas	-11.4615
▁चतुर्	-11.4615
▁अच्छी	-11.4618
▁संपद्यत	-11.4623
ुरी	-11.4623
न्ता	-11.4624
▁दिवं	-11.4624
tan	-11.4625
ca	-11.4625
▁समेत	-11.4627
तव	-11.4628
▁cook	-11.4628
तश्च	-11.4629
फ़	-11.463
▁मौस	-11.463
▁स्थिताः	-11.4635
सच	-11.4636
▁पुमान्	-11.4636
जन्म	-11.4636
चित	-11.4637
वर्जित	-11.4637
▁succeed	-11.4637
▁chhod	-11.4638
▁paragraph	-11.4638
▁bus	-11.4638
सार	-11.4642
▁Saath	-11.4642
▁holiday	-11.4642
▁khwahish	-11.4642
▁supplied	-11.4642
▁urban	-11.4642
▁कटाक्ष	-11.4642
▁Mahabharata	-11.4642
▁khaane	-11.4642
▁yaha	-11.4642
footed	-11.4643
▁महिमान	-11.4643
▁mazz	-11.4643
▁सर्वव्यापी	-11.4644
▁चो	-11.4644
▁healthy	-11.4645
▁leke	-11.4645
▁trendy	-11.4646
▁departed	-11.4646
▁acknowledge	-11.4648
▁karega	-11.4648
▁measurement	-11.4649
▁किंचिद	-11.4649
▁agriculture	-11.4649
ba	-11.4649
व्यक्त	-11.4651
▁caring	-11.4653
▁ruling	-11.4653
▁Fathers	-11.4653
▁Himalayas	-11.4654
▁सदैव	-11.4654
▁patterns	-11.4654
▁aware	-11.4654
▁बढ़ा	-11.4655
▁काफी	-11.4659
जन्त	-11.4666
▁इडा	-11.4668
ायुपनिषत्सु	-11.467
▁features	-11.4671
nya	-11.4672
▁run	-11.4674
▁स्थिते	-11.4675
यलेन	-11.4676
ानेन	-11.4677
men	-11.4679
ध्व	-11.4679
▁पात्र	-11.468
ानं	-11.4684
▁चायु	-11.4686
▁उपा	-11.4687
âh	-11.4688
 1:	-11.469
न्ती	-11.4694
▁ऋग्वेद	-11.4695
र्हि	-11.4695
भूते	-11.4696
ân	-11.4697
dar	-11.47
▁green	-11.4702
▁पाते	-11.4702
▁बेटा	-11.4703
▁सौभाग्य	-11.4707
ज्ञानम्	-11.4714
विदा	-11.4715
ुवाच	-11.4716
▁सुक्ति	-11.4718
त्रं	-11.4718
▁अमर	-11.4719
▁शिंदे	-11.4719
▁छोटा	-11.4728
▁shauk	-11.4731
gâ	-11.4732
▁शोभन	-11.4735
▁तद्वहि	-11.4739
श्त	-11.475
▁लब्ध	-11.4751
▁गोविन्द	-11.4751
▁confess	-11.4754
ोहम	-11.4755
त्वम	-11.4759
▁गताः	-11.4759
▁Promise	-11.4759
▁categories	-11.4759
▁prastara	-11.4759
▁Shabd	-11.4759
wherever	-11.476
▁cold	-11.476
▁अनंत	-11.4761
▁Ân	-11.4761
▁छा	-11.4761
▁विधीयते	-11.4761
▁विलीयते	-11.4765
▁track	-11.4768
▁included	-11.4768
▁gâyatrî	-11.4772
▁भुवन	-11.4773
ायं	-11.4775
▁भाग्य	-11.4775
कन	-11.4775
▁टिक	-11.4776
दस	-11.4776
▁kite	-11.4777
ादयः	-11.4781
▁उठाया	-11.4784
▁silently	-11.4785
▁chat	-11.4785
▁prayers	-11.4786
▁चुप	-11.4787
नाडी	-11.4789
▁दीं	-11.479
▁individuals	-11.4793
दन	-11.4793
▁enemy	-11.4797
व्व	-11.4798
▁ब्रह्मलोक	-11.4801
ोपाय	-11.4801
बीजम्	-11.4802
▁rush	-11.4802
▁मञ्र	-11.4802
क्षरे	-11.4802
▁केवलम्	-11.4804
▁fuel	-11.4805
▁निर्मम	-11.4806
▁जातु	-11.4808
न्ञ	-11.4811
ik	-11.4812
▁पट	-11.4815
▁depart	-11.4817
ावस्था	-11.482
▁navel	-11.4821
भिन्न	-11.4822
सति	-11.4823
either	-11.4825
▁Gi	-11.4826
दृष्ट	-11.4826
शाद्युपनिषत्सु	-11.4828
▁dikh	-11.4828
▁सल	-11.4829
▁तत्परं	-11.483
विषय	-11.4833
▁पावन	-11.4835
▁writer	-11.4836
थ्य	-11.4836
▁खळ	-11.4837
▁struggles	-11.4837
▁week	-11.4838
▁सम्यग	-11.484
),'	-11.484
▁हैनं	-11.4843
ian	-11.4848
▁longing	-11.4851
▁length	-11.4854
ाकारो	-11.4857
▁बहूदक	-11.4863
▁कामान्	-11.4868
▁गोपीचन्दन	-11.4868
▁त॑	-11.4869
▁90	-11.4869
▁स्था	-11.487
▁विन्द	-11.4871
▁पक्क	-11.4872
▁अनायास	-11.4873
▁pakad	-11.4876
▁strange	-11.4876
▁स्यान्	-11.4878
▁बहू	-11.4878
▁Kolkata	-11.4878
▁Street	-11.4878
▁budget	-11.4878
▁devout	-11.4878
▁erroneous	-11.4878
▁liberation	-11.4878
▁rangoli	-11.4878
▁मुट्ठी	-11.4878
▁वविती्‍ा	-11.4878
▁श्रीभगवान्	-11.4878
▁melodies	-11.4879
▁rahungi	-11.4879
▁barish	-11.4879
▁Batao	-11.4879
▁gaming	-11.4879
▁lustre	-11.4879
▁प्रोताश्चेत	-11.4879
▁succession	-11.4879
▁निबन्धन	-11.4879
▁अखण्डकरस	-11.4879
ेतस्य	-11.488
▁auspicious	-11.488
▁supportive	-11.4881
▁षष्ठाध्याये	-11.4881
▁योऽधीते	-11.4881
▁चुके	-11.4882
▁भैया	-11.4882
▁camera	-11.4882
▁65	-11.4883
▁इसमें	-11.4884
▁भित्त्वा	-11.4884
दीप	-11.4884
सिद्धिः	-11.4886
▁command	-11.4887
▁span	-11.4888
▁बध्यत	-11.4888
▁remained	-11.4888
ical	-11.4894
▁पूव	-11.4894
▁प्रज्ञया	-11.4896
गतो	-11.4897
▁existed	-11.4899
kâra	-11.49
शाय	-11.4903
▁एतद्व	-11.4903
▁Vi	-11.4906
▁भास	-11.4906
▁discussed	-11.4907
▁entity	-11.4907
▁inseparable	-11.4908
सत्ता	-11.4908
▁pehla	-11.4908
▁missing	-11.4912
सोऽपि	-11.4913
▁कश्चित्	-11.4913
लक	-11.4917
▁tumhein	-11.4917
वाक्य	-11.4918
▁यशो	-11.4919
▁श्रम	-11.4921
ाठन	-11.4924
परम	-11.4926
▁चक्षुर	-11.4926
▁Sir	-11.4926
तारं	-11.4927
▁जाएं	-11.4928
▁डि	-11.4936
▁संकट	-11.4937
▁platforms	-11.4938
▁beautifully	-11.4941
▁efforts	-11.4941
har	-11.4942
▁दर्ज	-11.4942
मेत्य	-11.4943
▁शिवं	-11.4944
स्ठु	-11.4944
▁Rudras	-11.4944
▁trains	-11.4946
▁नारदः	-11.4946
▁bank	-11.4947
▁Yama	-11.4947
▁विदित	-11.4948
▁delight	-11.4949
▁surprises	-11.4949
▁आर्य	-11.4951
▁वत्से	-11.4952
▁चरन्ति	-11.4954
▁missions	-11.4954
▁relative	-11.4955
non	-11.4956
▁परिचित	-11.4957
▁century	-11.4958
तीत	-11.496
karte	-11.496
▁मिली	-11.4963
स्र	-11.4963
▁सखे	-11.4965
gar	-11.4965
▁प्रत्याहार	-11.4967
▁घुस	-11.4968
▁मनोरथ	-11.4969
▁षष्ठी	-11.4972
▁आदित्यो	-11.4974
णेन	-11.4976
िको	-11.4976
▁पतङ्ग	-11.4978
▁fields	-11.4978
मार्गेण	-11.4979
मात्मा	-11.498
्महे	-11.498
पितरं	-11.4981
वृत	-11.4981
ोऽन्तर	-11.4981
cha	-11.4984
▁भ्र	-11.499
▁सर्वतो	-11.4992
बे	-11.4993
▁श्रुति	-11.4996
▁College	-11.4999
▁Udgîtha	-11.4999
▁antecedent	-11.4999
▁capacity	-11.4999
▁curious	-11.4999
▁आरंभ	-11.4999
▁महाकाव्य	-11.4999
▁narrator	-11.4999
▁honest	-11.5001
रग	-11.5001
िते	-11.5004
▁[1885]	-11.5004
▁उम्र	-11.5006
▁happened	-11.5006
▁वह्नि	-11.5008
रतः	-11.5008
▁पञ्यति	-11.5009
शान्त	-11.501
▁jam	-11.5011
▁परेशान	-11.5011
▁यज्ञो	-11.5012
▁choices	-11.5017
▁drawing	-11.5017
ाग्र	-11.502
▁पर्य	-11.5024
ल्ली	-11.5027
▁बद्धा	-11.5029
▁स्वमेव	-11.5031
▁objections	-11.5032
ूष	-11.5033
▁फेर	-11.5034
▁परमात्म	-11.5035
प्रिया	-11.5041
co	-11.5041
▁quarter	-11.5043
▁विषम	-11.5044
▁बुला	-11.5044
▁ecological	-11.5045
▁Ah	-11.5046
▁िो	-11.5047
ष्टि	-11.5047
▁ब्रह्माण्ड	-11.5052
गम्	-11.5052
▁मता	-11.5052
▁इती	-11.5054
▁attains	-11.5055
▁सूर्यो	-11.5059
▁स्वस्वरूप	-11.5059
▁भरे	-11.5059
▁hollow	-11.506
▁खुल	-11.506
▁दू	-11.5062
▁21.	-11.5067
▁संप्र	-11.5069
▁इे	-11.5072
मास्थाय	-11.5074
▁poem	-11.5076
▁cartoon	-11.5076
भ्यास	-11.5077
▁देवान	-11.5078
banta	-11.5078
षां	-11.5083
नाथ	-11.5088
▁नामरूप	-11.509
▁तात	-11.509
जनक	-11.5091
▁victims	-11.5091
▁्‍त्	-11.5091
▁कठ	-11.5092
रें	-11.5095
यैव	-11.5098
▁revolution	-11.51
पां	-11.5101
त्रे	-11.5102
▁working	-11.5104
▁चूत	-11.5105
खर	-11.5105
▁प्रस्तुत	-11.5106
▁ब्रह्मन्	-11.5109
▁send	-11.5113
क्षी	-11.5116
▁expect	-11.5116
▁UP	-11.5119
▁YouTube	-11.5119
वित्	-11.5119
▁लब्ध्वा	-11.5119
▁gener	-11.512
▁flash	-11.512
▁Kerala	-11.5121
▁Okay	-11.5121
▁Totally	-11.5121
▁observation	-11.5121
▁steady	-11.5121
▁strike	-11.5121
▁‍म‍म	-11.5121
▁boost	-11.5121
▁stylish	-11.5121
▁Virâg	-11.5121
यन्न	-11.5121
▁warmth	-11.5122
▁सुरक्षा	-11.5122
▁golgappe	-11.5122
▁banega	-11.5123
▁employed	-11.5123
▁herself	-11.5123
▁सत्यम्	-11.5123
▁sixth	-11.5123
▁outward	-11.5123
▁anywhere	-11.5124
▁Ais	-11.5124
▁spoons	-11.5124
▁samne	-11.5125
▁throughout	-11.5126
वित	-11.5127
west	-11.5129
▁kahu	-11.513
▁यश	-11.513
▁student	-11.5132
▁ठहरी	-11.5132
▁आसान	-11.5132
झु	-11.5135
▁Therefore	-11.5136
▁isliye	-11.5136
▁यु	-11.5138
▁Mein	-11.5138
▁जानने	-11.5138
▁दन्त	-11.5139
▁बाबू	-11.5139
▁अहँ	-11.514
षी	-11.5141
▁town	-11.5141
▁nation	-11.5141
▁occurs	-11.5142
▁भवेत	-11.5142
पद्य	-11.5145
ोर्ध्व	-11.5146
▁मूल्य	-11.5146
▁intermediate	-11.5151
▁उपयोग	-11.5151
▁गमय	-11.5152
▁स्ट	-11.5152
गति	-11.5155
▁experienced	-11.5157
ेछु	-11.5158
▁असि	-11.516
▁संन्यस्य	-11.5161
▁myths	-11.5161
▁luminous	-11.5162
▁Ha	-11.5163
भिधीयते	-11.5164
▁kahaan	-11.5165
कुण्ड	-11.5165
▁66	-11.5166
424.	-11.5166
▁afterwards	-11.5167
▁सच्च	-11.5167
▁शोच	-11.5168
▁अयि	-11.5168
▁photos	-11.5169
istic	-11.517
▁न्य	-11.5171
▁सव्त	-11.5172
▁वेश्वानर	-11.5172
▁वाक	-11.5176
मण्डले	-11.5178
▁mixed	-11.5184
देच	-11.5185
दात	-11.5186
▁एका	-11.5186
▁fixed	-11.5188
▁showing	-11.5188
▁allows	-11.5191
▁गिरिश	-11.5191
▁Pandit	-11.5194
▁nobility	-11.5194
▁chamak	-11.5195
▁रामाय	-11.5197
▁message	-11.5199
▁बरह्मण	-11.52
▁shop	-11.5201
द्धत	-11.5201
▁संहार	-11.5202
तव्य	-11.5205
मधि	-11.5211
abhi	-11.5214
▁प्रयास	-11.5215
यस्	-11.5215
Those	-11.5216
▁स्वम	-11.522
kabhi	-11.5221
▁formed	-11.5223
▁अस्	-11.5224
▁प्रविष्ट	-11.5225
▁connects	-11.5226
▁current	-11.5228
ासिल	-11.5229
▁ऊध्व	-11.5229
▁नाड्य	-11.5229
▁गुहा	-11.523
कारान्‍त	-11.523
ding	-11.5231
हमेव	-11.5232
ास्पद	-11.5234
▁engage	-11.5236
▁पत्थर	-11.5236
▁49	-11.5237
▁जातो	-11.5238
▁उन्मुख	-11.5238
▁पद्य	-11.5243
▁Black	-11.5244
▁bodily	-11.5244
▁sought	-11.5244
▁anubhav	-11.5245
लिंग	-11.5245
ैन	-11.5245
▁प्रतिक्रिया	-11.5246
▁रसोई	-11.5247
▁इंद्र	-11.5248
दशा	-11.5248
▁derived	-11.5248
▁चुटकी	-11.5248
▁unfolding	-11.5249
▁2).	-11.5251
▁अवश्य	-11.5251
ित्यर्थः	-11.5251
▁शाप	-11.5252
▁हिम	-11.5252
▁stronger	-11.5253
▁कपड़े	-11.5254
राणां	-11.5255
▁हुईं	-11.5258
रन्	-11.526
▁bane	-11.5263
मिच	-11.5264
ूहीति	-11.5265
चन्द्र	-11.5265
▁खेचर	-11.5265
▁तुरीयातीत	-11.5267
▁तस्मान्	-11.5267
▁व्व	-11.5269
▁शिक्षा	-11.527
▁नादः	-11.527
▁pâda	-11.5271
pati	-11.5273
▁श्रोत्रे	-11.5276
▁mar	-11.5277
खय	-11.5277
सङ्गम	-11.528
▁guru	-11.5281
cho	-11.5282
▁56	-11.5282
▁blessed	-11.5283
स्तर	-11.5285
▁सर्वभूताना	-11.5285
▁इत्युच्यत	-11.5288
six	-11.5288
ेमाल	-11.5291
▁loose	-11.5292
▁ज़रूर	-11.5292
▁48	-11.5295
▁goals	-11.5298
▁जाल	-11.5299
▁शिरस	-11.53
▁श्रमिको	-11.5301
▁दृश	-11.5302
stick	-11.5302
न्त्य	-11.5303
▁समाधिः	-11.5305
▁चन्दन	-11.5306
▁टूटी	-11.5306
ास्त	-11.5307
▁इद्	-11.5308
रण	-11.5308
▁May	-11.5308
▁destroy	-11.5309
▁including	-11.5309
▁trunk	-11.5309
▁अधर	-11.5316
▁सववे	-11.5317
ास्तेषा	-11.5319
▁fill	-11.5319
ट्ट	-11.532
नित्य	-11.5325
▁write	-11.5325
▁rites	-11.5325
▁ब्रह्मचारिण	-11.5326
▁perspectives	-11.5326
पुण्य	-11.5327
१०५	-11.5327
thou	-11.5328
अह	-11.5328
asya	-11.5329
▁अविद्या	-11.533
▁उपाय	-11.5336
मिन्द्र	-11.5336
▁rope	-11.5337
डू	-11.5337
▁नरक	-11.5337
▁thereof	-11.5344
▁चिन्तय	-11.535
▁press	-11.5352
वृक्ष	-11.5353
▁sharp	-11.5354
▁Once	-11.5355
रतो	-11.5358
▁लभ्य	-11.5362
▁अथातो	-11.5364
▁फाइल	-11.5365
▁fair	-11.5365
▁विष्णो	-11.5367
▁Puri	-11.5368
▁touching	-11.5369
▁hypothesis	-11.5369
▁त्रिपाठी	-11.5369
▁literary	-11.5369
▁sawaal	-11.5369
▁iconic	-11.5369
▁bhook	-11.5369
▁rishte	-11.5369
▁midday	-11.5369
▁Good	-11.537
▁contrast	-11.537
▁संगठन	-11.537
▁subah	-11.537
▁Humesha	-11.537
▁remarkable	-11.537
दिन	-11.537
▁kingship	-11.537
▁elsewhere	-11.537
▁whatsoever	-11.5372
▁लेंगे	-11.5372
▁विधाता	-11.5373
▁लगेगा	-11.5373
▁घंटी	-11.5374
▁62	-11.5374
नों	-11.5374
▁[1897]	-11.5374
खी	-11.5375
▁लेगी	-11.5376
▁१०८	-11.5378
▁चीज	-11.538
▁anyone	-11.538
▁तलाश	-11.538
्यत	-11.538
▁कुले	-11.5382
▁निष्काम	-11.5382
▁suit	-11.5383
▁भले	-11.5383
▁तपोऽ	-11.5384
▁महतो	-11.5384
निक	-11.5386
▁pret	-11.5386
▁beasts	-11.5386
▁पुल	-11.5387
▁पुनरेव	-11.5387
१०९	-11.5389
▁११८	-11.539
▁padhi	-11.5391
▁fascinate	-11.5392
▁अवतु	-11.5393
▁cross	-11.5393
कां	-11.5398
▁TH	-11.54
म्भ	-11.5403
पेक्षते	-11.5405
ळय	-11.5405
ंगी	-11.5406
▁Yaha	-11.5406
▁न्यासः	-11.5407
▁empty	-11.5409
land	-11.5416
▁44	-11.5417
its	-11.5418
ming	-11.542
▁माम	-11.5421
वीं	-11.5421
कण्ठ	-11.5423
▁पुत्रा	-11.5424
▁पिनाकिन	-11.5424
▁chu	-11.5425
▁गोतम	-11.5425
▁abundance	-11.5426
▁remainder	-11.5426
▁dis	-11.5428
▁बुध	-11.543
▁stages	-11.5432
▁effective	-11.5435
्येच	-11.5436
नानि	-11.5439
cake	-11.5441
▁Pu	-11.5443
ासौ	-11.5445
▁ऋच	-11.5445
▁महता	-11.5446
▁originates	-11.5446
▁sorrow	-11.545
चक्रे	-11.5451
▁window	-11.5451
भाय	-11.5452
▁िी	-11.5452
▁चुप्प	-11.5458
▁बैठक	-11.5458
नाशिनी	-11.5459
▁सञ्च	-11.546
▁वेग	-11.5464
यत्	-11.5469
▁शान्तो	-11.5472
▁eats	-11.5476
▁ज्ञाता	-11.5476
विष्णु	-11.5476
बन्धनात्	-11.5477
▁संतत	-11.5478
त्ख	-11.5479
▁नियत	-11.5481
▁शी	-11.5481
▁clean	-11.5484
सक	-11.549
▁झुभ	-11.5492
▁अहमेतमु	-11.5494
▁horses	-11.5495
शाखा	-11.5495
▁usual	-11.5496
▁Upâmsu	-11.5496
▁Bâdarâyana	-11.5496
▁FOUR	-11.5496
▁Social	-11.5496
▁opponent	-11.5496
▁Svishtakrit	-11.5496
▁cinema	-11.5496
▁कौन्तेय	-11.5496
▁husband	-11.5496
▁distinctive	-11.5496
▁fruition	-11.5497
िन्हें	-11.5497
▁प्रवत	-11.5497
▁तुरंत	-11.5497
▁करीब	-11.5498
▁whispered	-11.5498
▁slowly	-11.5499
▁branches	-11.55
▁Sadas	-11.55
▁लेखक	-11.5501
op	-11.5502
▁छन्दो	-11.5503
▁मानना	-11.5511
▁इतः	-11.5512
▁उग्र	-11.5512
▁version	-11.5513
▁छी	-11.5517
▁Compare	-11.5518
▁तामस	-11.5519
्याः	-11.5521
âd	-11.5522
नक	-11.5525
▁आपः	-11.5526
▁ईशान	-11.5526
▁crime	-11.5527
▁घूंट	-11.5527
ितुम्	-11.5527
ज़	-11.5527
▁भिक्षु	-11.5528
११३	-11.5535
▁स्वर्ण	-11.5536
▁प्रपा	-11.5536
▁जातः	-11.5537
▁दिवि	-11.5538
ण्	-11.5538
▁नित्यो	-11.5539
▁योगा	-11.5539
▁तावद	-11.5543
▁cha	-11.5546
▁नारी	-11.5547
पट	-11.5548
ाभ्या	-11.5548
▁स्थावर	-11.555
संपन्न	-11.555
▁पाता	-11.5553
▁प्रपद्य	-11.5553
▁boards	-11.5553
▁bha	-11.5557
कल्पना	-11.556
dhi	-11.5562
▁कत	-11.5562
▁अव्यय	-11.5563
णोति	-11.5563
▁शुक	-11.5564
aye	-11.5564
▁अल्प	-11.5564
▁construct	-11.5564
▁निरामय	-11.5568
वृत्य	-11.557
▁अद्भुत	-11.5571
भवामि	-11.5573
▁तन	-11.5574
चीत	-11.5575
जर	-11.5575
▁छात्र	-11.5576
रणं	-11.5577
▁creator	-11.5579
▁waterfall	-11.558
▁movement	-11.558
▁हेन	-11.5584
▁इत्यादि	-11.5585
ाक्षरो	-11.5586
▁pad	-11.5589
▁त्रिपुरा	-11.5591
माचरेत्	-11.5591
▁वष	-11.5591
त्विति	-11.5593
▁दोषा	-11.5594
laying	-11.5595
ज्ञाना	-11.5596
ksha	-11.5597
ajkal	-11.56
स्तद्व	-11.5603
▁यत्न	-11.5604
yate	-11.5605
▁नास्य	-11.5606
▁growing	-11.5607
▁मेघा	-11.5612
▁58	-11.5614
श्वर	-11.5615
▁Speak	-11.5616
यन्ती	-11.5616
▁ending	-11.5618
चेतसः	-11.5619
६४	-11.562
▁तरफ	-11.5622
speech	-11.5623
because	-11.5623
▁Hyderabad	-11.5624
▁infrastructure	-11.5624
▁Bhagat	-11.5624
▁kareeb	-11.5624
▁tiger	-11.5624
▁queen	-11.5624
▁Unhon	-11.5624
▁स्वाधिष्ठान	-11.5624
▁unlimited	-11.5624
▁मालूम	-11.5624
बू	-11.5624
▁देहोऽहमिति	-11.5625
▁dunga	-11.5625
▁surrounded	-11.5626
▁आतुर	-11.5626
▁जयातया	-11.5626
▁भूतमात्रा	-11.5626
प्येति	-11.5626
▁रजो	-11.5627
▁इत्यष्टमाध्याये	-11.5627
▁thrown	-11.5627
▁affected	-11.5628
▁मेल्या	-11.5629
▁करोमि	-11.5629
प्रकाश	-11.563
न्वायत्ता	-11.563
▁प्रवतेते	-11.5631
▁lyrics	-11.5633
▁scientists	-11.5633
▁पुष्टि	-11.5634
upani	-11.5634
▁allowed	-11.5636
श्रवण	-11.5638
▁payments	-11.564
ृत्त	-11.5641
▁lene	-11.5642
▁फलम्	-11.5642
▁चरेत्	-11.5644
▁nadi	-11.5644
ring	-11.5645
▁करम	-11.5645
shed	-11.5645
▁crops	-11.5645
▁पूर्वोक्त	-11.5647
▁क्षेत्रज्ञ	-11.5647
▁maar	-11.565
मानो	-11.565
▁अन्तर	-11.5651
न्तरो	-11.5651
▁चलो	-11.5654
▁नाच	-11.5656
हँ	-11.5657
each	-11.5657
▁turning	-11.5659
घे	-11.5663
ानन्द्	-11.5663
भ्‍	-11.5666
▁वाग्	-11.5667
रकर	-11.5671
त्ते	-11.5672
▁मुलाकात	-11.5674
याद	-11.5675
Then	-11.5676
▁Hari	-11.5676
▁extends	-11.5677
▁कृतं	-11.5679
▁निष्क्रान्ता	-11.568
▁इत्युक्त	-11.5681
▁संत	-11.5681
▁प्रभव	-11.5682
▁योगशिखोपनिषत्	-11.5683
▁inherent	-11.5684
दद	-11.5684
िकं	-11.5687
▁shapes	-11.5688
्‍द	-11.569
▁चित्तस्य	-11.5691
▁एवैष	-11.5691
▁प्रकारेण	-11.5691
▁कर्मे	-11.5692
शिव	-11.5693
▁इतो	-11.5694
▁भक्ष	-11.5694
▁केचित्	-11.5698
▁एतद्	-11.5699
▁चक्षुष	-11.5701
ुयात्	-11.5705
▁आर	-11.5705
self	-11.5707
▁require	-11.5708
urg	-11.5709
▁image	-11.5709
▁imperfection	-11.5709
▁जंगल	-11.5712
नगर	-11.5715
▁प्रमुख	-11.5715
▁instances	-11.5716
▁मतः	-11.5717
▁gets	-11.5717
▁विष्ट	-11.5722
लोप	-11.5722
▁देवतेत	-11.5723
ड़े	-11.5724
▁dog	-11.5726
▁नान	-11.5727
▁मन्त्र	-11.5727
तार	-11.5732
him	-11.5732
▁वसव	-11.5733
▁सरकार	-11.5734
तोऽसि	-11.5735
यितव्य	-11.5736
▁जुहोति	-11.5738
▁/	-11.5738
▁finds	-11.5738
gu	-11.5741
करी	-11.5743
ढु	-11.5743
▁तत्सर्व	-11.5744
▁चाचा	-11.5744
▁पेड़	-11.5746
▁नारायणाय	-11.5747
▁कप	-11.5749
▁जाग	-11.575
▁veil	-11.5753
▁Krish	-11.5753
▁clarity	-11.5754
▁daughter	-11.5754
▁fusion	-11.5754
▁war	-11.5755
▁realistic	-11.5755
कण	-11.5756
▁cost	-11.5758
▁एं	-11.5758
▁forgotten	-11.5759
▁पञ्ज	-11.5759
▁श्रोतव्य	-11.576
will	-11.5764
▁distractions	-11.5766
▁realized	-11.5767
्यन्त	-11.577
▁ages	-11.5771
▁देगा	-11.5771
मध्यस्थ	-11.5771
▁मौत	-11.5771
▁rishta	-11.5772
▁टिका	-11.5774
ास्ता	-11.5774
▁रखना	-11.5775
▁अस्मा	-11.5775
▁भिद्यते	-11.5776
▁राक्षस	-11.5777
▁भारी	-11.5778
▁जन्मान्तर	-11.578
कूट	-11.5781
▁विश्वे	-11.5781
▁नास्त्य	-11.5781
▁भवती	-11.5783
▁अग्र	-11.5785
न्तरे	-11.5786
▁crush	-11.5789
कभी	-11.5793
संभव	-11.5794
▁यतिः	-11.5795
गल	-11.5798
▁दवा	-11.5799
तप्यत	-11.5802
▁clouds	-11.5806
▁playing	-11.5806
▁pictures	-11.5807
टि	-11.5811
oo	-11.5815
बस	-11.5819
त्प	-11.582
SC	-11.5825
▁समे	-11.5828
न्तीति	-11.5828
▁श्वेत	-11.5829
तुरीय	-11.5833
स्तम	-11.5837
▁पुरुषा	-11.5837
▁sign	-11.5838
▁झुभा	-11.5839
▁sprang	-11.5841
न्च	-11.5842
ध्वा	-11.5843
षति	-11.5846
▁अमी	-11.5846
ास्म	-11.5848
स्से	-11.5848
▁जटा	-11.5849
कस्य	-11.5852
▁कर्थं	-11.5853
▁बन्धन	-11.5854
formula	-11.5857
ऽन	-11.5858
त्तरतापिन्युपनिष	-11.5859
▁पतित	-11.5861
▁साध	-11.5862
लाप	-11.5863
▁बी	-11.5863
▁15,	-11.5863
▁निधन	-11.5864
▁कुमारसंभव	-11.5864
▁वर्षा	-11.5865
ग्रे	-11.5867
भागेन	-11.5868
पिण्ड	-11.5868
oge	-11.5871
न्धो	-11.5871
▁उत्तित	-11.5874
रूपाय	-11.5876
▁cp	-11.5876
▁vol	-11.5878
ळक्षण	-11.5881
कृष्ण	-11.5881
▁गूँज	-11.5883
▁Âsv	-11.5884
▁कथम्	-11.5885
रभ्य	-11.5885
▁launch	-11.5886
▁Gaimini	-11.5886
▁Perception	-11.5886
▁Trust	-11.5886
▁trishtubh	-11.5886
▁Ramesh	-11.5886
▁लंबी	-11.5886
▁सात्त्विक	-11.5886
▁उपरांत	-11.5886
▁boat	-11.5886
▁argumentation	-11.5886
▁नेपथ्य	-11.5887
ow	-11.5887
▁eco	-11.5888
▁modernity	-11.5888
nual	-11.5889
▁kahaniyan	-11.5889
श्राद्ध	-11.5889
▁usme	-11.5891
▁Sûdra	-11.5891
▁वीक्ष्य	-11.5892
▁rendered	-11.5893
▁एकाध	-11.5895
▁वेत्थ	-11.5896
▁schools	-11.5896
▁सोमो	-11.5897
▁listening	-11.59
▁देवत	-11.5901
▁impressions	-11.5906
two	-11.5906
युग्म	-11.5906
ुते	-11.5907
▁प्रणवेन	-11.5909
Well	-11.591
▁namely	-11.5911
▁तत्रास्य	-11.5913
▁१२०	-11.5913
▁श्रवण	-11.5914
▁देखकर	-11.5915
▁फौ	-11.5917
▁victory	-11.5918
▁हिसाब	-11.5918
मेंट	-11.5919
▁transcends	-11.5919
▁burn	-11.5921
▁भवता	-11.5923
▁चाप	-11.5925
▁षडङ्ग	-11.5926
त्यन्त	-11.5927
▁Science	-11.5927
▁राजन्	-11.5929
▁चांप	-11.593
▁अद्	-11.5931
▁खस	-11.5932
समन्वित	-11.5933
करोति	-11.5935
▁exception	-11.5936
▁स्वागत	-11.5937
▁आदत	-11.5938
▁जनाः	-11.5939
▁sages	-11.5941
विधाय	-11.5942
प्रिय	-11.5944
▁usually	-11.5944
▁पत्	-11.5947
lit	-11.5949
▁सहा	-11.5951
▁inward	-11.5951
▁स्थिरो	-11.5953
▁प्रणय	-11.5957
▁पञ्चविध	-11.5963
ास्मा	-11.5963
▁smiled	-11.5965
▁Yag	-11.5967
▁ba	-11.5973
▁तुष्ट	-11.5973
नाशयेत्	-11.5973
▁जितेन्द्रिय	-11.5974
▁lifestyle	-11.5975
▁member	-11.5975
ैषा	-11.5975
▁अण	-11.5976
ial	-11.5976
स्थितो	-11.5977
पूजा	-11.5979
पाल	-11.5979
ाश्व	-11.5979
▁सेना	-11.598
ऽनन्त	-11.598
पाहि	-11.5981
bhâ	-11.5983
▁संचरन्	-11.5988
▁वेदेह	-11.599
▁सायं	-11.5992
चय	-11.5994
▁तन्तु	-11.5994
▁ट्रे	-11.5994
▁बिभ	-11.5996
▁aims	-11.5996
▁मांस	-11.5997
▁मेघ	-11.5998
▁clauses	-11.6001
दर्श	-11.6002
▁26.	-11.6003
धिक	-11.6005
▁संधि	-11.6005
ेच्छा	-11.6006
▁हंसो	-11.6007
▁परमात्मनि	-11.6008
सित	-11.6012
▁55	-11.6012
▁contradict	-11.6014
▁अमृत	-11.6016
िनो	-11.6018
▁nervous	-11.6018
ाम्य	-11.6018
व्ये	-11.6019
ākuntalam	-11.6019
▁studies	-11.6019
▁दफ्तर	-11.6019
▁safety	-11.602
▁विवाह	-11.6022
▁सदानन्द	-11.6023
▁अस्मिन्	-11.6025
▁ज्योतिष	-11.6028
▁risen	-11.6028
हस्	-11.6028
सूत	-11.6032
stoma	-11.6034
ाभरण	-11.6036
हंकार	-11.6039
upa	-11.6043
रात	-11.6044
ळो	-11.6047
सेवा	-11.6048
▁चौथ	-11.605
▁शृणु	-11.6052
▁संवृत्त	-11.6052
▁ग्रा	-11.6052
▁seeking	-11.6053
▁भुज	-11.6056
▁कृता	-11.6062
▁beneficial	-11.6071
वतो	-11.6073
▁changing	-11.6075
▁प्रयुक्त	-11.6076
2)	-11.6076
▁2),	-11.6077
नारायण	-11.6077
▁guided	-11.6078
▁तस्सा	-11.6078
▁वायुर	-11.6078
▁फर	-11.6079
▁barley	-11.608
▁Ether	-11.608
▁objected	-11.6081
▁Svâhâ	-11.6082
▁laws	-11.6083
▁ताम	-11.6083
युग	-11.6086
▁particulars	-11.6086
मतः	-11.6088
▁Sha	-11.6089
देवत	-11.6093
▁flows	-11.6094
थिवी	-11.6094
▁legends	-11.6095
दै	-11.6095
▁पौ	-11.6097
mâ	-11.6097
कान्	-11.61
षं	-11.6102
▁अभाव	-11.6104
▁घुमा	-11.6107
▁तस्यै	-11.6107
▁novel	-11.6109
▁method	-11.611
▁exam	-11.611
▁directions	-11.6111
▁प्रस	-11.6112
▁विभूति	-11.6114
ward	-11.6114
▁नच	-11.6116
▁रखे	-11.6119
▁broad	-11.612
▁पथ	-11.6127
धर्मा	-11.6137
▁sentient	-11.6137
▁तत्सत्य	-11.6139
▁daal	-11.6142
▁ब्रूही	-11.6142
▁vada	-11.6143
oblation	-11.6145
pâ	-11.6147
योगतः	-11.6147
▁प्राणि	-11.6149
▁echo	-11.615
▁गरम	-11.615
▁instant	-11.6151
rimâ	-11.6152
▁100	-11.6152
महि	-11.6152
▁अहमेत	-11.6153
▁mass	-11.6153
विद्य	-11.6154
▁Bharatanatyam	-11.6154
▁Carnatic	-11.6154
▁Dulhania	-11.6154
▁Pakka	-11.6154
▁aspirations	-11.6154
▁enchanting	-11.6154
▁चुनौती	-11.6154
▁तनख्वाह	-11.6154
▁communication	-11.6154
▁खातिर	-11.6154
▁inferred	-11.6154
▁Games	-11.6154
▁अमोल	-11.6154
▁swaad	-11.6154
▁revered	-11.6155
▁access	-11.6155
▁सभ्यता	-11.6155
▁preceded	-11.6156
▁realities	-11.6156
▁tarik	-11.6156
▁attunement	-11.6156
▁फेंक	-11.6156
▁कदाचित्	-11.6157
▁useful	-11.6157
वलोक्य	-11.6158
▁प्रतिवाद	-11.6158
▁firmly	-11.6159
▁अधोठिठित	-11.616
▁तर्हि	-11.616
▁karegi	-11.616
▁जाग्रत	-11.616
▁partners	-11.6162
▁संयत	-11.6163
▁रहें	-11.6163
▁25.	-11.6164
▁impressed	-11.6165
▁Truth	-11.6165
▁इश्यते	-11.6165
▁षष्टी	-11.6166
▁गेट	-11.6166
▁leader	-11.6167
▁संप	-11.6168
ह्मणो	-11.617
▁देकर	-11.6171
▁diet	-11.6172
▁myth	-11.6173
मारोप्य	-11.6174
क्षि	-11.6174
▁Although	-11.6174
▁जातवेदस	-11.6175
Sat	-11.6175
▁जगद	-11.6175
▁ensure	-11.6175
▁संच	-11.6179
▁मन्यु	-11.6181
▁drinking	-11.6181
▁suno	-11.6181
▁सत्यम	-11.6184
Â	-11.6184
▁अकेले	-11.6187
born	-11.6188
▁square	-11.6188
').	-11.6189
▁gadgets	-11.6189
tha	-11.6193
▁टां	-11.6195
text	-11.6197
ोपासक	-11.6198
▁झून्य	-11.62
hat	-11.62
▁सौम्य	-11.6202
tah	-11.6202
▁slow	-11.6202
ऽनु	-11.6203
तस्त	-11.6205
ग्रत	-11.6205
▁निश्चित्य	-11.6206
▁extension	-11.6206
sap	-11.6211
्रियते	-11.6211
gh	-11.6212
▁क्व	-11.6216
ोऽस्म्यह	-11.6217
▁भिक्षा	-11.6217
रिया	-11.6221
त्वमसि	-11.6223
▁प्राणस्य	-11.6226
▁yad	-11.6227
मभ	-11.6228
into	-11.6228
▁recipes	-11.6229
कृत्य	-11.6231
▁Ma	-11.6231
करणं	-11.6233
▁तेरा	-11.6236
▁वास्तव	-11.6236
भ्या	-11.624
ेत्युपनिषत्	-11.6242
honi	-11.6244
▁परमहंस	-11.6246
्मि	-11.6246
प्रतिष्ठ	-11.6246
▁modification	-11.6246
prâ	-11.6246
▁विद्युत	-11.6249
चेत	-11.6255
▁सन्त	-11.6256
han	-11.6257
▁exercise	-11.6258
मना	-11.6259
▁hast	-11.6261
▁विजानात	-11.6262
▁मय्य	-11.6263
▁तकृती्‍ा	-11.6264
▁ठवभठकत	-11.6266
▁संसारो	-11.6267
▁त्वच	-11.6269
▁योगिभि	-11.6269
▁पृष्ठ	-11.627
▁मू	-11.6272
वाला	-11.6272
▁fat	-11.6273
ीयं	-11.6273
कुछ	-11.6274
▁Sam	-11.6276
▁सक्त	-11.6276
द्त	-11.6277
▁MS	-11.6277
श्ष	-11.628
रतं	-11.6283
▁chhu	-11.6284
vâd	-11.6286
▁तदिद	-11.6287
▁म्र	-11.6287
▁स्वच्छ	-11.6287
त्यं	-11.629
▁प्रत्‍य‍य	-11.629
किस	-11.6291
▁तूष्णी	-11.6291
commerce	-11.6291
▁civilization	-11.6291
▁okay	-11.6291
▁thumb	-11.6291
▁twice	-11.6291
▁ड्राइवर	-11.6291
▁Old	-11.6291
▁लीजिए	-11.6291
▁fish	-11.6291
▁खिलाफ	-11.6292
▁इलाज	-11.6292
▁addresses	-11.6292
ृष्ट	-11.6293
▁राजी	-11.6293
५८	-11.6294
▁सांस	-11.6294
▁मन्तव्य	-11.6295
▁consumed	-11.6295
ानन्तर	-11.6296
▁चक्कर	-11.6296
्क	-11.6297
ेयाय	-11.63
▁spen	-11.6301
▁chanting	-11.6305
▁घटना	-11.6307
▁कुशल	-11.6308
▁दशा	-11.6309
▁भूयः	-11.631
▁connections	-11.6311
दष्ट	-11.6313
▁played	-11.6313
sûtras	-11.6314
मथो	-11.6315
थी	-11.6316
▁शरद	-11.6318
▁सर्वो	-11.6321
ाम्यहम्	-11.6323
▁बनी	-11.6325
त्यथ	-11.6329
▁नत्वा	-11.6329
मसि	-11.6331
सारा	-11.6332
िरिति	-11.6333
ख्र	-11.6334
▁23.	-11.6336
रित	-11.6338
▁नीति	-11.6338
घाय	-11.6338
मतो	-11.6339
▁बहस	-11.634
▁तदात्मन	-11.6341
nu	-11.6342
पते	-11.6342
▁पूर्वा	-11.6343
र्यं	-11.6346
▁बद	-11.6348
▁दिल	-11.6348
525.	-11.6348
▁झ्	-11.6351
▁उत्तरत	-11.6352
▁बैठन	-11.6352
धः	-11.6352
▁चुन	-11.6353
▁अन्ते	-11.6358
त्रापि	-11.6361
आत	-11.6362
ध्वनि	-11.6362
वासा	-11.6365
लेश	-11.6368
▁dreaming	-11.6369
जित	-11.637
▁प्रवाल	-11.6371
न्नो	-11.6372
ञ्चो	-11.6376
▁पश्चाद	-11.6377
▁उठाए	-11.6379
▁description	-11.6384
▁winter	-11.6384
▁determine	-11.6386
ामोति	-11.6387
▁कस्मिन्	-11.6387
▁Two	-11.639
Ye	-11.6392
जब	-11.6392
▁विषये	-11.6394
▁आत्मना	-11.6396
▁नोट	-11.6398
▁page	-11.6399
प्रणव	-11.6401
▁हां	-11.6401
▁भार	-11.6402
ber	-11.6403
▁samjhe	-11.6403
▁सुनयो	-11.6403
ेय	-11.6404
ाधार	-11.641
▁benefit	-11.641
तेऽ	-11.6413
रितः	-11.6414
▁Vo	-11.6414
▁tareek	-11.6415
▁key	-11.6416
▁लक्ष्यते	-11.6417
▁देशे	-11.6418
▁सहयोग	-11.6418
▁शाण्डिल्य	-11.642
पद्म्	-11.642
▁विनियोग	-11.6421
▁वागेव	-11.6424
▁भूर्	-11.6424
सुराः	-11.6425
▁तस्माद्वा	-11.643
▁Honestly	-11.643
▁facie	-11.643
▁gently	-11.643
▁heavy	-11.643
▁incapable	-11.643
▁metaphysical	-11.643
▁yummy	-11.643
▁battery	-11.643
▁definition	-11.643
▁बच्ची	-11.643
▁masterpiece	-11.643
▁bhature	-11.643
ेको	-11.643
▁जिह्वया	-11.643
▁प्रथ‍मा	-11.643
▁abroad	-11.643
▁तदे	-11.6431
▁Piya	-11.6431
▁quickly	-11.6431
▁embarrassing	-11.6432
▁नेता	-11.6432
द्वे	-11.6432
▁doubtful	-11.6432
▁सीढ़ियां	-11.6433
▁उदार	-11.6433
▁presentation	-11.6433
▁अदृश्य	-11.6434
▁सुषुप्त	-11.6434
▁shanti	-11.6435
▁lack	-11.6435
▁आत्मान	-11.6436
▁received	-11.6437
▁तस्मात्सर्व	-11.6437
▁मारीच	-11.6438
▁नाशयति	-11.6439
्यहं	-11.644
▁ध्यायन्	-11.644
▁पझ्यति	-11.6441
▁प्रत्या	-11.6441
▁करेगा	-11.6441
=	-11.6441
▁नुसिंहो	-11.6444
▁pursue	-11.6444
▁तदनु	-11.6444
▁mutters	-11.6444
▁usko	-11.6447
▁walked	-11.6447
▁पर्वत	-11.6448
▁सुघुन्ना	-11.6449
क्कत	-11.645
याव	-11.6451
▁स्वाहेत्य	-11.6452
▁सागर	-11.6453
▁चढ़	-11.6453
र्ति	-11.6453
▁चाली	-11.6454
▁छि	-11.6456
▁पाप्मना	-11.6457
▁अन्ये	-11.6457
▁bal	-11.6458
▁हेम	-11.6459
▁बनाया	-11.646
▁पुराने	-11.6461
▁सैषा	-11.6461
दति	-11.6462
चलो	-11.6464
▁प्रयच्छ	-11.6465
▁streets	-11.6467
▁तस्मादिद	-11.6467
▁पूण	-11.6471
▁इससे	-11.6472
ाहुः	-11.6473
▁baith	-11.6473
▁प्रवृत्त	-11.6473
▁Also	-11.6474
▁novels	-11.6476
न्त्या	-11.6477
दाय	-11.6477
कृता	-11.6478
▁घास	-11.6478
▁constructs	-11.6479
▁निश्चिनु	-11.6479
▁alike	-11.6479
▁एवम	-11.648
▁धीरो	-11.648
▁63	-11.6481
मिल	-11.6481
▁गीता	-11.6482
ise	-11.6482
ayi	-11.6483
▁पुँण्लङ्ग	-11.6484
▁सप्त‍मी	-11.6484
▁ध्यात	-11.6484
rish	-11.6484
▁बीजशक्ति	-11.6485
▁कम्प	-11.6486
whatever	-11.6487
▁शतृ	-11.6488
पद्	-11.6491
▁शुच	-11.6495
▁प्रविशन्त	-11.6497
▁सुवन	-11.6499
वण्भ	-11.6499
रभ	-11.65
▁जर	-11.6502
▁उपरर	-11.6505
तेजोबिन्दूपनिषत्	-11.6506
▁हृदयस्य	-11.6506
▁लोकाः	-11.6509
tvam	-11.651
▁योनी	-11.651
शब्देन	-11.6511
▁तोय	-11.6512
▁तदस्य	-11.6515
जेन	-11.6519
▁खल्व	-11.6519
▁ग्यारह	-11.6523
▁sentences	-11.6528
न्नास्ति	-11.6528
रोष	-11.653
खो	-11.6531
ुपास्ते	-11.6533
जाया	-11.6534
▁friendly	-11.6536
▁............	-11.6537
▁गोपा	-11.6538
लित	-11.6538
▁ततोऽ	-11.6543
▁निर्मल	-11.6544
▁कन्था	-11.6547
▁क्षीयते	-11.6549
▁बूहीति	-11.6549
▁भूषण	-11.6549
"?	-11.6551
▁किंचिद्	-11.6551
▁व्याप्य	-11.6552
सुक	-11.6555
जरा	-11.6557
▁कुर्वन्	-11.6559
धियो	-11.6561
ियत	-11.6563
▁invite	-11.6563
▁क्रम	-11.6563
coming	-11.6564
▁रेतस	-11.6564
च्छि	-11.6564
▁बू	-11.6565
▁अध्यात्म	-11.6567
▁adjust	-11.6569
▁Râgasûya	-11.6571
▁courage	-11.6571
▁engaging	-11.6571
▁upabhrit	-11.6571
▁उम्मीद	-11.6571
▁dying	-11.6571
▁candle	-11.6571
▁chole	-11.6571
▁कू	-11.6571
▁collective	-11.6571
▁weather	-11.6571
ज्योति	-11.6571
26	-11.6573
▁अक्ष	-11.6573
▁gunas	-11.6573
गार	-11.6575
▁सूच	-11.6577
▁softly	-11.6577
क्षार	-11.6577
▁पित	-11.6577
▁advanced	-11.6577
यमान	-11.6578
▁Ibid	-11.6578
▁सुह	-11.658
▁व्यस्त	-11.658
्रि	-11.6584
▁तसै	-11.6587
▁career	-11.6587
ोक्ता	-11.6588
र्ता	-11.6589
वाच्य	-11.6591
सारं	-11.6592
▁commentators	-11.6592
ीकरण	-11.6593
▁बैठकर	-11.6594
▁constituted	-11.6594
निर	-11.6597
▁स्नेह	-11.6598
▁अद्वेत	-11.6598
मण्डप	-11.6598
▁retreat	-11.6599
▁स्थूळ	-11.6601
▁मिलता	-11.6602
▁obtaining	-11.6602
▁लगन	-11.6603
▁परिणाम	-11.6613
▁शो	-11.6617
शने	-11.6618
▁calling	-11.6619
व्यवहार	-11.662
▁प्रवृत्ति	-11.6621
 2:	-11.6624
▁hey	-11.6625
▁evolve	-11.6627
▁wheel	-11.6629
▁जले	-11.6631
▁poore	-11.6632
ात्मको	-11.6633
iya	-11.6634
▁Sarasvatî	-11.6635
▁लिखी	-11.6637
▁अनया	-11.6638
saath	-11.6638
ुर्	-11.6639
देवा	-11.664
▁believed	-11.6641
▁XV	-11.6643
▁स्वय	-11.6645
सूर्य	-11.6646
▁कमेण	-11.6646
pap	-11.6646
▁रवि	-11.6646
▁कक्षा	-11.6647
▁तद्विष्णो	-11.6648
क्तं	-11.6649
▁कैवल्य	-11.6649
▁धम	-11.665
▁यावद्	-11.665
▁हेत	-11.6651
▁खुशी	-11.6652
▁बत	-11.6653
-2	-11.6654
ाचार्य	-11.6656
▁ज्ञानेन	-11.6659
▁dwell	-11.6659
▁arrive	-11.666
yat	-11.6662
▁जोर	-11.6667
▁आत्मनि	-11.6668
▁परिश्रम	-11.6668
Thee	-11.6669
▁करण	-11.667
वर्ग	-11.6672
संह	-11.6672
▁छिप	-11.6674
ामी	-11.6674
▁देवाय	-11.6676
▁योगिनो	-11.6677
▁मोद	-11.6679
▁अर्ध	-11.668
▁साङ्ग	-11.6681
जति	-11.6682
mat	-11.6686
▁निर्व	-11.6687
▁याज्ञ	-11.6688
after	-11.6691
हमस्मि	-11.6692
▁beside	-11.6692
▁z	-11.6692
▁विरक्त	-11.6693
▁tells	-11.6696
▁डी	-11.6696
▁journeys	-11.6697
▁नाति	-11.6697
▁तत्पद	-11.6697
▁प्राय	-11.6698
▁पुरु	-11.6699
▁सिद्धा	-11.6699
नय	-11.6703
▁योजना	-11.6703
ग्रहण	-11.6705
▁64	-11.6706
नह	-11.6707
▁productive	-11.6713
्लैट	-11.6713
▁aroma	-11.6714
▁TikTok	-11.6714
▁[1894]	-11.6714
▁pagal	-11.6714
▁skincare	-11.6714
▁supply	-11.6714
▁बिटिया	-11.6714
▁दिगम्बर	-11.6714
▁Vaman	-11.6714
▁bhaji	-11.6714
▁Jayenge	-11.6714
▁dikht	-11.6714
▁गायब	-11.6715
▁milegi	-11.6715
▁rakht	-11.6715
▁छन्दांसि	-11.6716
▁honored	-11.6716
▁Lu	-11.6716
▁bitaye	-11.6717
प्रमत्त	-11.6717
▁enjoyable	-11.6718
▁कुरसी	-11.6719
▁Sû	-11.6719
▁matches	-11.6719
▁cooked	-11.6719
▁pronounced	-11.672
▁tied	-11.672
ush	-11.672
▁huye	-11.672
▁charmer	-11.6722
fa	-11.6722
▁recognise	-11.6723
▁batana	-11.6723
▁भित्वा	-11.6723
विषये	-11.6724
६०	-11.6724
वारं	-11.6725
चिरोष	-11.6725
▁वेदानुशासन	-11.6728
जञ	-11.6729
▁सुखे	-11.6731
▁teachings	-11.6733
some	-11.6733
▁gir	-11.6733
ंश	-11.6734
▁Ta	-11.6734
स्थूल	-11.6736
▁चिन्ता	-11.6736
▁inquiry	-11.6739
▁वास्तविकता	-11.6739
▁returns	-11.674
▁initiatives	-11.674
▁प्रलय	-11.6741
देन	-11.6741
▁आय	-11.6742
▁deposits	-11.6742
थः	-11.6744
▁subserve	-11.6747
▁देखना	-11.6747
धातु	-11.6748
▁Tvashtri	-11.6749
▁gaze	-11.6749
▁पठित्वा	-11.6749
हान	-11.675
maya	-11.6751
▁तिल	-11.6753
ानघ	-11.6753
▁गोत्र	-11.6753
न्मनसा	-11.6755
रूपम्	-11.6762
▁burns	-11.6763
भिश्च	-11.6763
▁जला	-11.6765
▁cartoons	-11.6766
▁proving	-11.6769
her	-11.6777
भाज	-11.6781
▁covered	-11.6784
▁बालों	-11.6784
▁निरतिशयानन्द	-11.6786
▁तथो	-11.6786
▁व्याहर	-11.6786
▁वेद्य	-11.6787
▁दाहिन	-11.6789
▁Both	-11.6789
▁सुरा	-11.6791
कत्व	-11.6794
▁श्रुत्वा	-11.6797
bha	-11.6798
वर्णा	-11.6799
▁इत्येवं	-11.6802
गां	-11.6802
▁प्राक्	-11.6803
▁ज्योतिषा	-11.6803
भ्यं	-11.6804
ाधिक	-11.6805
▁pehn	-11.6806
▁except	-11.6809
▁इत्वा	-11.681
▁अये	-11.681
डल	-11.681
▁प्रकाशित	-11.6813
ळू	-11.6813
▁prosper	-11.6813
▁serves	-11.6813
▁preparation	-11.6814
ाभास	-11.6815
ादा	-11.6816
▁treats	-11.6818
▁विभाव	-11.682
▁actor	-11.6822
▁awake	-11.6823
कुत्वा	-11.6824
▁धूम	-11.6825
▁Free	-11.6829
▁पूर्वे	-11.6829
वें	-11.6829
६१	-11.6834
तीत्युपनिषत्	-11.6835
▁इशान	-11.6835
दीनां	-11.6837
▁developed	-11.6838
हेतु	-11.6839
▁तौ	-11.6842
गव	-11.6843
ाञ्	-11.6844
५५	-11.6848
▁तदेवा	-11.6849
▁क्षीण	-11.6851
▁shares	-11.6854
चंद्र	-11.6855
ेन्द्र	-11.6855
▁constant	-11.6856
▁सुलभ	-11.6858
▁चीज़	-11.6859
▁easier	-11.6859
▁flutter	-11.6859
▁technical	-11.6859
▁Devata	-11.6859
▁जिंदगी	-11.6859
▁commute	-11.6859
▁झेल	-11.686
योगी	-11.6861
▁डिब्बा	-11.6861
▁sikh	-11.6861
po	-11.6864
▁देच	-11.6864
वाल	-11.6865
▁बोतल	-11.6867
▁lifetime	-11.6867
▁entertaining	-11.6868
▁शास्त्र	-11.6869
▁समझाया	-11.687
▁hate	-11.6871
▁हल	-11.6873
ान्तरे	-11.6873
▁enable	-11.6874
kâ	-11.6875
▁बहाने	-11.6876
▁कुर्वन्ति	-11.6878
▁2);	-11.6878
सिः	-11.6878
▁badha	-11.6882
▁विप	-11.6882
ंशः	-11.6886
▁सोस्य	-11.6886
▁bonding	-11.6888
▁कारक	-11.6889
▁रूपम	-11.6892
▁शोषण	-11.6892
▁artistic	-11.6894
▁चिन	-11.6898
▁प्रश्नः	-11.6898
▁तद्य	-11.6898
▁Pani	-11.6899
▁व्यवसाय	-11.69
▁नासा	-11.6902
▁अंक	-11.6903
दाः	-11.6904
ादित्यो	-11.6908
▁विसु	-11.6909
▁जानीया	-11.6912
▁कोप	-11.6912
विकार	-11.6912
anu	-11.6915
टु	-11.6917
षो	-11.6918
leaf	-11.6922
▁ग्राम	-11.6923
द्रा	-11.6927
ाङ्	-11.6927
▁त्वे	-11.6927
▁पनिषत्	-11.6929
▁पाती	-11.693
▁व्रत	-11.6931
▁taki	-11.6931
▁झेव	-11.6933
▁लगाया	-11.6934
▁distinctions	-11.6935
▁wanting	-11.6942
ाधिकार	-11.6942
▁plays	-11.6944
▁सवेषा	-11.6945
महे	-11.6945
▁demand	-11.6946
मानेन	-11.695
सिन	-11.6952
▁लक्ष	-11.6955
न्तर	-11.6956
▁divide	-11.6959
िताः	-11.6959
▁pavitra	-11.6959
▁lamp	-11.6959
▁experiment	-11.6959
▁शाक	-11.696
▁guest	-11.696
▁conception	-11.6961
▁con	-11.6961
▁thread	-11.6961
▁entertain	-11.6962
▁न्यास	-11.6962
▁compound	-11.6962
शक	-11.6963
▁stalls	-11.6963
माच	-11.6963
▁रां	-11.6964
▁storyline	-11.6965
vâk	-11.6965
▁letter	-11.6966
ran	-11.6966
▁तत्व	-11.6967
▁iske	-11.6967
▁authoritative	-11.6968
इश	-11.6968
▁पयो	-11.6979
▁अम्बा	-11.6982
▁पद्	-11.6987
▁संज्ञा	-11.6989
▁thrill	-11.699
▁षद्	-11.699
▁utter	-11.6992
▁भे	-11.6992
▁खम	-11.6992
नयन	-11.6997
रेः	-11.6998
यानी	-11.6999
लत	-11.7
▁affect	-11.7
▁apprehend	-11.7001
▁havis	-11.7002
▁te	-11.7002
▁Han	-11.7002
न्होंने	-11.7003
▁संनि	-11.7003
▁गोप्य	-11.7004
▁East	-11.7004
▁Beach	-11.7006
▁Gujarat	-11.7006
▁hooked	-11.7006
▁taiyaar	-11.7006
▁खंडाला	-11.7006
▁ठद्वचन	-11.7006
▁सचमुच	-11.7006
कञ्चुक	-11.7006
▁samsâra	-11.7006
▁दीजिए	-11.7006
▁Prateek	-11.7006
▁उदयाहरण	-11.7006
▁Moon	-11.7006
▁ए्‍वचन	-11.7006
▁dust	-11.7007
▁नियंत्र	-11.7007
▁saara	-11.7007
▁chalungi	-11.7007
लोक्य	-11.7008
▁istema	-11.7009
▁catchy	-11.701
▁परिक्रम्य	-11.701
▁brighter	-11.701
▁जबरन	-11.7012
▁snacks	-11.7012
▁restored	-11.7012
apped	-11.7013
▁wake	-11.7014
्नो	-11.7015
▁engaged	-11.7015
स्थि	-11.7016
▁aayegi	-11.7017
छो	-11.7017
▁विश्वस्य	-11.7018
वक्र	-11.7019
▁पुनरा	-11.702
▁मरुता	-11.702
▁Fort	-11.702
▁आधी	-11.7021
▁Technology	-11.7021
▁roads	-11.7022
त्यां	-11.7025
▁Raj	-11.7027
ntil	-11.7029
▁न्याय	-11.703
▁सोऽहमस्म	-11.7031
▁सद्य	-11.7032
▁तथाहि	-11.7033
▁âsramas	-11.7035
▁माली	-11.7035
▁जानीयात्	-11.7035
रिष्यते	-11.7036
▁bowl	-11.7036
▁अशोक	-11.7037
▁दिशि	-11.7037
▁29.	-11.7038
bo	-11.7039
▁सकें	-11.7041
▁tool	-11.7041
▁indicates	-11.7041
Go	-11.7042
य॑	-11.7042
▁करुण	-11.7043
▁११२	-11.7045
शते	-11.7047
नन्त	-11.7048
▁रकम	-11.7051
▁beloved	-11.7052
▁त्वेव	-11.7053
▁modifications	-11.7054
▁रचनात्मक	-11.7054
▁logical	-11.7055
▁निरतिशय	-11.7056
▁संन्यासी	-11.7057
मामि	-11.7059
ृति	-11.7061
डी	-11.7061
शं	-11.7062
▁unborn	-11.7063
▁खाद	-11.7066
▁पैसा	-11.7067
ega	-11.7068
▁meeting	-11.707
▁पीड़ा	-11.7071
▁तच्च	-11.7072
▁Maitrâvaruna	-11.7073
▁लोकान्	-11.7073
▁सस्मित	-11.7074
▁truths	-11.7074
त्क	-11.7075
न्तरा	-11.7076
▁incidents	-11.7081
▁द्विविध	-11.7083
▁blessings	-11.7085
▁बृह	-11.7085
तय	-11.7086
▁थो	-11.7086
▁consequences	-11.7087
ऽत्र	-11.7088
▁सै	-11.7089
▁slay	-11.709
▁नेतर	-11.7093
वान्भवति	-11.7095
▁विद्यात्	-11.7098
भेदेन	-11.71
sastra	-11.71
शास्त्र	-11.7103
रान्	-11.7104
▁अजीब	-11.7104
▁आत्मज्ञान	-11.7105
▁केस	-11.7105
तवा	-11.7106
filled	-11.7106
यजते	-11.7107
▁तुरीया	-11.7107
▁अम्मा	-11.7108
those	-11.7108
▁emotion	-11.7109
▁adhyâya	-11.7109
▁consideration	-11.711
▁चतुर्दश	-11.7111
▁sloka	-11.7111
▁outfit	-11.7111
▁स्क	-11.7112
▁proceeding	-11.7113
संन्यासी	-11.7113
▁तनू	-11.7113
ller	-11.7115
▁rakh	-11.712
▁Aap	-11.712
ाकृति	-11.7123
▁रुप	-11.7123
कोप	-11.7129
स्रत	-11.7133
चाच	-11.7134
▁दूं	-11.7135
▁Today	-11.7137
गमन	-11.7138
▁झुचि	-11.7138
पतये	-11.7139
परित्याग	-11.7141
▁आद	-11.7143
निष्ठो	-11.7144
सत्त्व	-11.7144
▁कमी	-11.7146
▁सफाई	-11.7146
ैति	-11.7147
▁सैव	-11.7148
3;	-11.715
▁resort	-11.715
02-	-11.7152
ोऽय	-11.7153
▁भर्ग	-11.7154
▁authentic	-11.7154
▁dissolution	-11.7155
▁facing	-11.7155
▁schedule	-11.7155
▁valuable	-11.7155
▁subsistence	-11.7155
▁context	-11.7155
▁protection	-11.7156
▁idâ	-11.7156
▁कार्यक्रम	-11.7156
▁inserted	-11.7156
▁severed	-11.7157
▁seeks	-11.7158
▁fivefold	-11.7158
▁gathered	-11.7158
▁27.	-11.7158
आत्मा	-11.7159
▁expresses	-11.7159
▁uttered	-11.716
मण्ड	-11.716
▁दर्द	-11.7161
▁परमार्थत	-11.7162
▁विविध	-11.7162
▁नारसिंह	-11.7162
▁properly	-11.7164
मिद	-11.7166
▁ईदृश	-11.7167
िके	-11.7168
▁करिष्यति	-11.7168
▁tone	-11.7168
▁देवानाम	-11.7169
माधाय	-11.7171
विकल्प	-11.7172
▁solo	-11.7173
▁कारखान	-11.7173
▁घाम	-11.7174
▁Red	-11.7176
मण्डळ	-11.7176
▁वासी	-11.718
भूः	-11.7181
है	-11.7181
▁Gagatî	-11.7181
मित्यादि	-11.7182
मोंकार	-11.7182
even	-11.7183
▁ruk	-11.7184
स्तुरीय	-11.7186
▁giver	-11.7187
▁weak	-11.7191
न्द्रस्य	-11.7191
▁कौ	-11.7191
▁ह्येव	-11.7193
कारिणी	-11.7194
लू	-11.7195
विल	-11.7198
▁गुरुणा	-11.72
दले	-11.7206
बाहु	-11.7208
स्वरूपो	-11.7208
▁cover	-11.7209
eth	-11.721
शुद्ध	-11.721
▁खत	-11.721
▁रामो	-11.7214
पक्ष	-11.7217
▁उच्च	-11.7223
▁परिवर्तन	-11.7224
▁पढ़ना	-11.7224
▁कुर्	-11.7225
▁विद्	-11.7225
दष्टि	-11.7226
सत्	-11.7229
▁shadows	-11.723
वच्च	-11.7233
▁treasure	-11.7235
▁सत्यु	-11.7237
▁पं	-11.7237
▁cling	-11.7239
प्रयोग	-11.7243
▁public	-11.7244
▁विशेषत	-11.7245
▁grasp	-11.7246
▁buy	-11.7252
▁writers	-11.7253
▁refute	-11.7253
▁नृसिंह	-11.7255
बहु	-11.7258
▁Ja	-11.7259
भवत्	-11.726
Know	-11.726
तुः	-11.726
वक	-11.7261
श्रेष्ठ	-11.7264
yas	-11.7265
tes	-11.7267
वु	-11.7268
first	-11.7268
बाबूजी	-11.7268
भयं	-11.7274
▁प्रज्ञान	-11.7279
);--	-11.728
धरा	-11.7283
▁नेन	-11.7284
▁seeds	-11.7285
gan	-11.7288
▁बाल्य	-11.7289
्यात्	-11.7291
▁पाल	-11.7293
▁जुहुयात्	-11.7294
तन्न	-11.7294
▁मुक्तो	-11.7296
ष्टो	-11.7298
▁shoulder	-11.7299
च्छन्द	-11.7303
▁CBSE	-11.7306
▁bought	-11.7306
▁chocolate	-11.7306
▁economy	-11.7306
▁soothing	-11.7306
▁पञि‍मी	-11.7306
▁सनत्कुमार	-11.7306
▁refutation	-11.7306
▁Buddha	-11.7306
▁गान्धारी	-11.7306
▁Sakshi	-11.7306
▁Warna	-11.7306
▁urbanization	-11.7306
▁losing	-11.7306
▁संदर्भ	-11.7306
▁raw	-11.7307
misunderstanding	-11.7307
▁overwhelming	-11.7307
▁निष्क्रिय	-11.7307
▁ghoomte	-11.7307
▁straight	-11.7308
▁विचारणा	-11.7308
▁dedicated	-11.7308
▁दृष्ट्वा	-11.7308
▁Thoda	-11.7309
▁जेब	-11.7309
▁deals	-11.7309
imaag	-11.7309
▁badiya	-11.731
▁सम्मान	-11.731
▁कुरुक्षेत्र	-11.7311
▁तस्मादेव	-11.7311
▁जाओ	-11.7311
▁[1882]	-11.7312
▁व्यक्तित्व	-11.7312
▁indicated	-11.7313
गृह	-11.7313
▁चतुर्विध	-11.7313
▁महाविष्णु	-11.7317
▁सर्वकारण	-11.7317
द्वारा	-11.7317
▁fine	-11.7318
▁ऊंच	-11.7318
▁जन्तु	-11.732
▁प्रक्रिया	-11.7321
▁showcase	-11.7322
▁दृश्यते	-11.7322
▁अतो	-11.7323
At	-11.7324
▁मनसेव	-11.7324
▁kehne	-11.7325
▁डूब	-11.7325
▁jokes	-11.7327
▁पातु	-11.7327
▁core	-11.7327
▁छोकः	-11.7327
▁सख	-11.7328
मधिभूत	-11.7328
ग्राम	-11.7331
▁तत्त्वत	-11.7331
ङ्कर	-11.7332
▁असुर	-11.7334
हन	-11.7336
हारिणी	-11.7337
pr	-11.7339
▁एतमेवाह	-11.7342
▁hills	-11.7342
चिति	-11.7342
▁हक	-11.7344
▁ितडुथषी	-11.7344
▁concerns	-11.7345
▁बाह्मण	-11.7345
▁सर्वशः	-11.7345
दरा	-11.7345
श्चन्द्र	-11.7347
स्तो	-11.7347
ाभाव	-11.7347
▁प्रतिष्टित	-11.7349
▁wing	-11.7351
▁परिहर	-11.7352
▁सुनी	-11.7352
ोपनिषद	-11.7353
▁सुरत	-11.7354
▁royal	-11.7355
▁rec	-11.7356
वष	-11.7357
्‍ि	-11.7358
ita	-11.7363
त्तर	-11.7364
मखण्ड	-11.7364
्‍्‍	-11.7365
▁lump	-11.7365
▁ff	-11.7367
▁काट	-11.7367
▁thick	-11.7368
टो	-11.7369
▁पञ्	-11.7372
yu	-11.7375
▁gap	-11.7377
▁अस्याः	-11.7378
▁स्कन्द	-11.738
▁sham	-11.738
ाद्युपनिषत्सु	-11.738
▁पव	-11.7383
▁आव	-11.7383
▁cakes	-11.7384
▁mystic	-11.7386
संकोच	-11.7386
ाकर्षय	-11.7392
▁समाप्य	-11.7393
▁द्वय	-11.7393
संकाश	-11.7398
कद्प	-11.7398
iyan	-11.7398
पेक्ष	-11.7399
bestowed	-11.7402
▁weave	-11.7403
▁प्रत्याहारः	-11.7404
▁भानु	-11.7406
▁argue	-11.7407
▁बहव	-11.7407
त्परं	-11.7408
▁ब्राह्मणस्	-11.7409
▁एकमात्र	-11.741
दृष	-11.741
रामा	-11.7411
▁तपस्त	-11.7412
▁pour	-11.7415
▁इत्यु	-11.7415
▁ह्येष	-11.7421
▁उतरन	-11.7422
▁प्रवक्ष्याम	-11.7424
▁हृद	-11.7427
द॑	-11.7428
▁24.	-11.7428
▁भूयास	-11.743
▁ishti	-11.743
▁ऊध्वं	-11.7432
people	-11.7432
▁World	-11.7432
ून	-11.7434
just	-11.7434
ndi	-11.7438
▁फळ	-11.7438
br	-11.7439
मीयते	-11.7439
▁यज्ञा	-11.7444
जाळ	-11.7445
▁28.	-11.7446
▁गतं	-11.7446
▁संचरति	-11.7447
▁कुर्वी	-11.7448
▁strengthen	-11.7449
▁प्रार्थयन्त	-11.745
ृप्यति	-11.745
कालं	-11.7451
▁उधर	-11.7451
▁भोग्य	-11.7455
िणः	-11.7455
▁transport	-11.7455
print	-11.7456
▁स्तुवन्	-11.7457
▁strict	-11.7457
▁रेचयेत्	-11.7457
▁सोम्येति	-11.7459
ors	-11.746
▁boundaries	-11.746
▁imperishable	-11.746
▁permission	-11.746
▁tapestry	-11.746
▁चेतावनी	-11.746
▁introd	-11.746
▁व्‍याकरणवी	-11.746
▁Talk	-11.746
▁legendary	-11.7461
▁commitment	-11.7461
▁बाहू	-11.7461
▁purity	-11.7462
▁मनुष्याणा	-11.7462
▁ascertained	-11.7464
hood	-11.7464
▁dies	-11.7465
▁brighten	-11.7469
▁त्रिषु	-11.7471
▁भावाभाव	-11.7474
▁गोपाल	-11.7474
ादीनि	-11.7475
मर्	-11.7476
चित्र	-11.7476
▁निवृत्त	-11.7478
▁क्षीणे	-11.7481
interpreted	-11.7481
पहला	-11.7482
▁खून	-11.7483
bu	-11.7487
▁ततश्च	-11.7487
▁sprinkling	-11.7487
द्वौ	-11.7488
▁forests	-11.749
यदा	-11.7494
covers	-11.7495
▁यदु	-11.7496
ीह	-11.7497
▁noise	-11.7498
दानीं	-11.7498
कामयत	-11.7499
▁अजा	-11.7501
▁विकसित	-11.7501
ाह्	-11.7502
६८	-11.7504
छति	-11.7505
ंतरिक	-11.7506
▁75	-11.7506
▁Kab	-11.7507
स्यते	-11.7508
▁70	-11.7511
▁गायत्र	-11.7515
लोका	-11.7515
▁वक	-11.7515
▁देखता	-11.7516
▁j	-11.7518
मायाति	-11.7519
▁टूट	-11.752
▁सजा	-11.752
▁दीपो	-11.7521
▁मन्द	-11.7523
▁भर्ता	-11.7525
क्षित	-11.7527
▁लकार	-11.7528
ural	-11.7529
▁sole	-11.7529
शिख	-11.753
▁नाह	-11.753
▁Consciousness	-11.7531
▁गतिम्	-11.7531
▁Am	-11.7532
▁भूमा	-11.7533
▁asks	-11.7535
▁राघव	-11.7538
▁distinguish	-11.7538
▁अवा	-11.7539
जग	-11.754
▁blue	-11.7541
▁rooted	-11.7541
्यति	-11.7543
▁प्रणम्य	-11.7543
▁heads	-11.7548
▁जगद्	-11.7548
▁पक	-11.7549
▁सेतु	-11.7551
▁रयि	-11.7551
▁inter	-11.7553
▁भगवा	-11.7554
▁सुखदुःख	-11.7555
▁Ruk	-11.7559
▁महः	-11.756
lic	-11.7561
▁इर	-11.7561
aan	-11.7563
▁confirm	-11.7567
ाञ्चि	-11.757
▁response	-11.7571
▁chutney	-11.7571
▁ससु	-11.7572
▁उलट	-11.7573
▁vibe	-11.7573
▁teen	-11.7574
▁प्रातः	-11.7575
▁प्रजाना	-11.7576
सेद	-11.7576
रते	-11.7577
शर	-11.7578
▁हयग्रीव	-11.7579
son	-11.758
▁तमः	-11.758
ेम	-11.7581
ाचार	-11.7581
चेतन्य	-11.7581
ासुर	-11.7584
Mirzapur	-11.7589
▁करुणा	-11.759
▁3),	-11.7593
▁rakhn	-11.7594
ाधर	-11.7594
▁सावधान	-11.7595
▁११५	-11.7598
मानसं	-11.7598
▁celebration	-11.7598
tal	-11.7598
whether	-11.7599
True	-11.7599
रूत	-11.76
▁खुश	-11.76
६२	-11.7601
▁कद	-11.7602
बूझ	-11.7605
▁ताप	-11.7606
▁Usme	-11.7607
▁72	-11.7608
ाभावे	-11.7609
▁विमान	-11.7611
▁लाई	-11.7613
▁societ	-11.7614
्यथ	-11.7615
शाख	-11.7615
▁सीढ़िय	-11.7615
▁furnish	-11.7616
2626.	-11.7617
▁Monsoon	-11.7617
▁Namaste	-11.7617
▁Waah	-11.7617
▁ceremonial	-11.7617
▁उंगली	-11.7617
▁entities	-11.7617
▁मालकिन	-11.7617
▁आनंद	-11.7617
▁Magar	-11.7617
▁batting	-11.7617
▁Arka	-11.7617
▁injury	-11.7617
▁pulse	-11.7617
▁छोकाः	-11.7618
▁ghoomne	-11.7618
▁प्रारब्ध	-11.7618
▁hunger	-11.7618
▁diye	-11.7618
▁instrumental	-11.762
गण	-11.762
▁रघु	-11.762
▁Seema	-11.7621
तीद	-11.7621
▁usmein	-11.7623
▁परिकीर्तितः	-11.7623
▁Arrey	-11.7624
▁निकालकर	-11.7625
▁शाकल्य	-11.7625
▁दिक्	-11.7627
▁क्षमता	-11.7628
▁ज्ञानमयी	-11.7629
▁पीता	-11.7629
▁enjoining	-11.763
▁walls	-11.763
▁reflecting	-11.763
▁जानन्ति	-11.763
▁suggested	-11.7631
▁reduc	-11.7631
▁पूणेमद	-11.7632
▁searching	-11.7633
▁opened	-11.7633
▁इत्या	-11.7633
यानि	-11.7634
▁rakhta	-11.7634
साधु	-11.7637
ीभूत	-11.7638
क्न	-11.7638
घारण	-11.7642
▁discovering	-11.7642
▁तृप्यत	-11.7643
▁ग्रहण	-11.7643
▁मामला	-11.7643
ढ़ी	-11.7643
न्तरिक्ष	-11.7643
निमित्त	-11.7644
▁nevertheless	-11.7644
▁numerous	-11.7644
धान	-11.7646
नन्तम्	-11.7648
▁celebrated	-11.7649
▁शकुन्तले	-11.7652
ासो	-11.7652
▁प्रार्थित	-11.7654
▁Ukthya	-11.7655
▁der	-11.7656
वच	-11.7656
▁हस्ता	-11.7659
ski	-11.7659
▁फूट	-11.7659
िने	-11.7663
▁घूर	-11.7666
▁baho	-11.7667
▁pages	-11.7667
EN	-11.7668
▁attributed	-11.7672
▁कहता	-11.7674
▁स्वस्तिक	-11.7674
▁Bharat	-11.7676
▁शिवा	-11.7678
त्राय	-11.7679
मुत्सज्य	-11.7681
existent	-11.7681
▁बन्धु	-11.7682
ादो	-11.7683
▁विसुक्त	-11.7683
▁निरुध्य	-11.7685
धिष्ठित	-11.7687
▁Brâhman	-11.7688
िक्षु	-11.769
▁तमसो	-11.769
▁Hail	-11.7693
पद्म	-11.7693
▁मच	-11.7694
▁तत्पर	-11.7695
▁Ram	-11.7696
kh	-11.7697
न्यं	-11.7698
▁analyze	-11.7701
▁unse	-11.7702
५०	-11.7704
देर	-11.7706
▁कस	-11.7709
One	-11.771
▁produc	-11.7712
taking	-11.7718
▁द्वा	-11.7721
▁contradictory	-11.7722
ुत्	-11.7722
▁collapse	-11.7724
▁ददौ	-11.7725
मात्थ	-11.7725
▁61	-11.7726
▁isme	-11.7728
▁pressed	-11.7729
▁स्तब्ध	-11.7729
ितव्यम्	-11.7731
मेतद्धि	-11.7737
▁67	-11.7738
▁एवमेव	-11.7739
्रे	-11.7739
परसों	-11.7739
▁विज्ञानं	-11.774
▁शीर्ष	-11.7744
▁पूज्य	-11.7745
▁इत्	-11.775
▁भावा	-11.7753
ending	-11.7755
ितां	-11.7756
ब्र	-11.7757
wood	-11.7757
नू	-11.776
रोऽक्ष	-11.7761
▁inspired	-11.7762
रन्ध्र	-11.7763
▁एवेद	-11.7764
ुत्थाय	-11.7764
लस्य	-11.7764
▁garam	-11.7766
▁हिरण्यगर्भ	-11.7766
दूसरे	-11.7767
▁fly	-11.7771
भस्मना	-11.7773
▁ascribe	-11.7774
▁buds	-11.7775
▁major	-11.7775
▁shoes	-11.7775
▁sunrise	-11.7775
▁absent	-11.7775
▁lunch	-11.7775
▁grew	-11.7775
▁महत्त्वपूर्ण	-11.7775
▁dipping	-11.7776
▁thither	-11.7776
▁scientific	-11.7776
▁वंचित	-11.7776
▁devoted	-11.7776
▁pursuit	-11.7776
▁ब्रत	-11.7776
▁authorities	-11.7776
▁gradually	-11.7776
▁मटका	-11.7776
▁सौंप	-11.7777
▁तद्धि	-11.7777
▁ashes	-11.7778
▁foreign	-11.7778
ोऽभवत्	-11.7778
▁IT	-11.7779
▁अनुसार	-11.7779
श्रिय	-11.778
▁elemental	-11.778
▁translated	-11.778
Or	-11.7781
▁मतिः	-11.7781
▁सक्ष	-11.7783
▁जितना	-11.7783
▁fight	-11.7784
▁ring	-11.7785
▁इत्याथर्वणीया	-11.7785
▁न्रि	-11.7785
योप	-11.7785
iva	-11.7787
▁bolo	-11.7787
▁चोद	-11.7789
तीन	-11.7789
▁clubs	-11.7792
प्रश्न	-11.7795
▁पढ़ने	-11.7795
▁भीषण	-11.7796
▁मिलकर	-11.7797
▁doctors	-11.7799
▁rate	-11.78
▁चिदु	-11.7802
▁स्वात्मन	-11.7803
▁खुली	-11.7803
▁षद	-11.7803
▁species	-11.7803
▁कदम	-11.7807
▁shell	-11.7807
▁स्त्रियो	-11.7808
▁सम्य	-11.7808
ल्ल	-11.7811
▁raises	-11.7813
▁renunciation	-11.7814
▁22.	-11.7816
वर्धन	-11.7817
▁ब्रह्ममात्र	-11.7817
▁सवो	-11.7817
ज्ये	-11.7819
हास	-11.782
▁शिरसा	-11.782
मीशान	-11.7821
▁परेण	-11.7822
ाउ	-11.7824
इ्य	-11.7825
▁सरव	-11.7826
▁पष	-11.7826
▁स्यात्त	-11.7826
वनं	-11.7828
क्षरा	-11.7829
▁तज्ञ	-11.783
▁असत्य	-11.7831
▁connecting	-11.7831
▁passions	-11.7832
▁पदानि	-11.7833
▁लगते	-11.7834
▁महाबाह	-11.7835
▁Ramayana	-11.7837
▁3).	-11.7839
▁चराचर	-11.784
▁शेय	-11.784
्यपि	-11.7841
▁महती	-11.7841
tter	-11.7844
▁symbols	-11.7844
versed	-11.7845
du	-11.7846
▁tongue	-11.7848
▁waste	-11.785
▁घाट	-11.7853
र्थः	-11.7855
▁pit	-11.7858
श्रिताः	-11.7858
▁कालो	-11.7859
only	-11.7863
▁filling	-11.7866
वेष	-11.7866
▁लोहे	-11.7869
परमेश्वर	-11.7873
लोचन	-11.7875
▁उपमान	-11.7875
▁limit	-11.7875
भावेन	-11.7875
▁लेख	-11.7877
▁साम्य	-11.788
▁प्राणन्त	-11.7883
ज्ञानेन	-11.7884
▁रेचक	-11.7884
▁देय	-11.7887
▁Ya	-11.7889
▁मय	-11.7889
▁technique	-11.7892
▁Three	-11.7893
▁cutting	-11.7894
▁नाप	-11.7894
देवो	-11.7895
▁एषोऽ	-11.7895
गणा	-11.7899
ृह	-11.79
ig	-11.7902
ाण्य	-11.7902
▁गार्गी	-11.7903
५१	-11.7903
त्यजेत्	-11.7908
▁रुचि	-11.7908
▁68	-11.7911
▁breaking	-11.7912
सल	-11.7912
▁आठ	-11.7912
▁चिदात्मन	-11.7913
chi	-11.7914
▁रामः	-11.7915
▁समुद्ध	-11.7916
च्चा	-11.7916
▁यज्ञेन	-11.7917
६६	-11.7919
हीति	-11.7919
पुत्राय	-11.792
▁गिरि	-11.7921
मखण्डेकरस	-11.7922
▁relax	-11.7922
ंगे	-11.7923
▁उन्माद	-11.7925
▁अहण	-11.7926
ङृत	-11.7929
▁कश्चि	-11.7929
▁प्रतिकूल	-11.793
गर्भ	-11.793
▁ha	-11.7931
▁collect	-11.7931
▁align	-11.7932
▁मञजूिा	-11.7935
▁यस्मि	-11.7936
Recite	-11.7937
▁Things	-11.7937
▁butterflies	-11.7937
▁shukriya	-11.7937
▁stepped	-11.7937
▁supplies	-11.7937
▁कैंटीन	-11.7937
▁प्रद्युम्न	-11.7937
▁विस्मृत	-11.7937
▁expectations	-11.7937
▁chhoo	-11.7937
▁undefined	-11.7937
▁padht	-11.7937
▁roshni	-11.7937
▁rehkar	-11.7938
▁sections	-11.7938
▁mom	-11.7938
▁denied	-11.7938
▁Master	-11.7938
▁सलाह	-11.7938
▁accessories	-11.7939
▁आएगी	-11.7939
▁पश्च	-11.7939
▁बुरा	-11.7939
▁khelna	-11.794
▁मच्च	-11.794
milk	-11.794
Thus	-11.7941
▁Bengali	-11.7942
▁enclosed	-11.7944
▁excluded	-11.7944
▁तनिक	-11.7944
गम्य	-11.7945
▁Dono	-11.7946
▁माथे	-11.7947
▁देवलोक	-11.7947
▁luckie	-11.7949
ized	-11.7951
रूपकम्	-11.7952
▁मामल	-11.7952
▁chalta	-11.7952
▁पापेन	-11.7953
▁readers	-11.7954
▁Ch	-11.7954
▁decided	-11.7955
वेद्य	-11.7956
▁देखे	-11.7956
मायुर	-11.7956
्यम्	-11.7956
▁कूट	-11.7957
call	-11.7958
महानारायणोपनिषद	-11.7959
▁प्राणाय	-11.7959
मिवा	-11.7959
tic	-11.796
▁logo	-11.7962
▁विभिन्न	-11.7963
▁divinities	-11.7965
▁पादयो	-11.7965
व्यु	-11.7966
▁recommendations	-11.7967
▁wasn	-11.7969
▁सख्या	-11.7972
श्चतु	-11.7973
▁यासा	-11.7974
▁११७	-11.7975
▁proximity	-11.7976
▁Language	-11.7976
▁identification	-11.7976
▁Alright	-11.7976
▁Aapk	-11.7977
▁धारय	-11.7981
▁अश	-11.7982
▁Its	-11.7984
▁रखते	-11.7985
▁guard	-11.7985
नियम	-11.7987
▁दद	-11.7988
▁color	-11.7988
मिम	-11.7989
) 1	-11.7994
▁निवर्तय	-11.7994
▁fills	-11.7995
ol	-11.7996
मुद्	-11.7996
कुळ	-11.7996
bse	-11.7997
▁तसवीर	-11.7999
▁ideal	-11.7999
▁दुग्ध	-11.8
▁उपलब्ध	-11.8
▁sublated	-11.8
ुतं	-11.8003
▁वसति	-11.8005
▁कर्तुं	-11.8005
▁तिस्र	-11.8005
▁सर्वग	-11.8006
▁जगती	-11.8009
▁seekh	-11.801
ख्य	-11.8012
These	-11.8012
▁chants	-11.8013
▁आसमान	-11.8014
ार्थः	-11.8015
▁ध्यायत	-11.8015
थत	-11.8015
तन्त्र	-11.8016
णीय	-11.8016
▁एवाहम	-11.8017
क्षणे	-11.8018
पूणे	-11.8018
▁सनातनः	-11.8019
▁तत्रा	-11.8021
चारी	-11.8021
▁त्री	-11.8026
▁jobs	-11.8027
११९	-11.8029
▁त्व्	-11.803
गोचरम्	-11.803
▁चतुष्टय	-11.8032
▁संस्था	-11.8032
वेदा	-11.8033
रूपिण	-11.8034
▁मूक	-11.8035
▁निर्देश	-11.8038
प्रज्ञ	-11.8042
▁वेदितव्य	-11.8042
▁दध	-11.8042
▁प्रतिमा	-11.8043
रेषु	-11.8044
▁सुन्दर	-11.8044
worldly	-11.8045
्तं	-11.8046
१११	-11.8049
▁चित्	-11.805
▁माना	-11.8051
▁वासुदेवाय	-11.8053
▁उड़	-11.8054
वर्तते	-11.8054
ागम	-11.8055
▁solution	-11.8056
▁correct	-11.8056
▁Little	-11.8056
▁breathe	-11.8057
▁stranger	-11.8058
िह	-11.8061
▁श्रिया	-11.8063
▁यत्तद	-11.8063
▁grown	-11.8064
▁अंग	-11.8064
इए	-11.8067
▁Vāk	-11.8068
विधि	-11.807
ाभिधा	-11.8071
▁cuisines	-11.8071
मनामय	-11.8071
▁kiss	-11.8072
ham	-11.8072
▁निवास	-11.8073
’—	-11.8075
▁संपीड	-11.8075
४५	-11.8075
▁तस्मान्न	-11.8077
भूय	-11.8077
▁मुखे	-11.8078
वित्त	-11.8079
▁परिष्कृत	-11.8081
ञ्रम	-11.8081
▁सात	-11.8081
५९	-11.8082
▁suggests	-11.8082
्ठ	-11.8085
्यर्थः	-11.8086
▁प्रणवो	-11.8087
▁षषठी	-11.8091
▁प्रबंध	-11.8091
 1)	-11.8092
्‍ते	-11.8095
पूरित	-11.8095
▁ब्रह्मानन्द	-11.8097
▁गकृह	-11.8098
▁apparent	-11.8098
नाशनम्	-11.8098
▁कार्ड	-11.81
▁crisp	-11.81
▁cycle	-11.81
▁destitute	-11.81
▁failure	-11.81
▁fiends	-11.81
▁untouched	-11.81
▁precious	-11.8101
▁हिंदी	-11.8101
▁गहरे	-11.8101
▁attainment	-11.8101
▁मंशा	-11.8101
माता	-11.8102
▁Hiranyagarbha	-11.8102
▁justice	-11.8103
▁weaving	-11.8104
▁लहरों	-11.8105
▁हिस्स	-11.8106
▁Kapila	-11.8106
▁पुरुषोत्तम	-11.8107
▁आपत्ति	-11.8107
▁comprises	-11.8108
▁प्रणवः	-11.8108
▁incomplete	-11.8108
▁सदस	-11.8109
▁receive	-11.8109
▁ज्ञेयं	-11.8109
▁ब्रह्मविद	-11.811
huh	-11.8112
bhâshya	-11.8113
south	-11.8115
existing	-11.8116
▁deer	-11.8117
▁anoints	-11.8117
▁efficient	-11.8118
▁सुखम	-11.8118
ष्यते	-11.812
▁purusha	-11.812
▁भगो	-11.8123
▁चान्ये	-11.8127
सुनिः	-11.8128
▁श्रेय	-11.8129
ins	-11.8129
▁devas	-11.8131
▁suggesting	-11.8132
▁landscapes	-11.8136
▁revealing	-11.8136
▁धीराः	-11.8139
▁भात	-11.8139
▁पुरुषस्त	-11.814
▁बीत	-11.814
▁Hello	-11.8141
▁युरुष	-11.8142
▁तत्प	-11.8142
▁returning	-11.8143
sacrificer	-11.8145
पश्य	-11.8146
▁Knowledge	-11.8148
भवं	-11.8149
▁402	-11.815
ाश्	-11.8151
▁bold	-11.8151
:6	-11.8152
▁वशी	-11.8154
रिम	-11.8154
क्का	-11.8156
▁प्रजाति	-11.8159
र्चा	-11.8159
yah	-11.8162
▁कृत्य	-11.8163
▁omentum	-11.8164
▁Âgrayana	-11.8164
ीकृत्य	-11.8165
▁claims	-11.8169
▁ऋजु	-11.817
oblations	-11.817
dene	-11.8176
गच्छ	-11.8178
▁षट्	-11.8183
▁उपर	-11.8186
▁रविः	-11.8187
▁षडक्षर	-11.8189
▁eh	-11.8192
▁भावयेत्	-11.8192
षिण	-11.8194
तन्तु	-11.8195
तों	-11.8195
वचन	-11.8197
ाखण्ड	-11.82
यिष्ठा	-11.8203
ग्रहः	-11.8206
वस्त	-11.8206
वस्तु	-11.8207
भोग	-11.821
▁Though	-11.821
▁अंदाज	-11.8211
िस्ट	-11.8211
▁पुच्छ	-11.8214
▁श्रोता	-11.8214
थं	-11.8215
दुच्यते	-11.8219
▁स्वेन	-11.8219
▁replace	-11.8221
कल्याण	-11.8221
▁edition	-11.8221
▁Would	-11.8222
रूपक	-11.8223
war	-11.8224
▁पृथिव्या	-11.8224
▁इझ्यत	-11.8227
▁नियति	-11.8227
धम	-11.8229
▁scen	-11.823
▁याज्ञवल्क्यो	-11.8231
▁द्रव्य	-11.8233
▁वक्ता	-11.8234
▁ओढ़	-11.8234
▁ङ	-11.8236
ञ्जय	-11.8237
vaya	-11.8239
समय	-11.824
▁Haw	-11.8242
डिति	-11.8245
10	-11.8246
▁screen	-11.8248
ैत	-11.8248
मांस	-11.8252
cow	-11.8254
फले	-11.8254
▁पुर्व	-11.8255
▁प्रबुद्ध	-11.8258
ञ्ु	-11.8259
खत	-11.8261
रसे	-11.8262
विद्धि	-11.8262
रङ्ग	-11.8263
▁pay	-11.8263
lush	-11.8266
भुवः	-11.8267
▁Mohan	-11.8267
▁WOMAN	-11.8267
▁float	-11.8267
▁immense	-11.8267
▁yesterday	-11.8267
▁उपन्यास	-11.8267
▁पारंपरिक	-11.8267
▁हस्तिजिह्वा	-11.8267
▁Hanuman	-11.8267
▁Netflix	-11.8267
▁indivisible	-11.8267
▁mandir	-11.8267
▁मुद्गल	-11.8267
▁वीतशोक	-11.8267
▁attack	-11.8267
▁गिलास	-11.8267
▁committed	-11.8267
▁उदयगिरि	-11.8267
▁entrance	-11.8267
▁hurt	-11.8267
▁adore	-11.8267
▁सूरयः	-11.8267
▁काव्यात्मक	-11.8267
▁perish	-11.8267
▁tempting	-11.8268
▁क्लास	-11.8268
▁jaunga	-11.8268
▁karwa	-11.8268
▁संपर्क	-11.8268
▁दुष्यन्त	-11.8269
ियो	-11.8269
▁enumerated	-11.8269
▁ट्रेड	-11.8269
▁पाएगी	-11.8269
▁chalega	-11.8269
▁स्वाध्यायप्रवचन	-11.827
▁मध्यमा	-11.8271
▁विषदू	-11.8271
▁प्रथिवी	-11.8271
▁relaxed	-11.8272
▁Boss	-11.8272
▁dekhke	-11.8272
रात्र	-11.8272
▁दबाव	-11.8273
▁सर्वेषामेव	-11.8274
▁करोतु	-11.8274
▁नाहमेत	-11.8274
▁distinctly	-11.8275
▁पुनरावतेते	-11.8275
▁नीत्वा	-11.8275
▁रहो	-11.8275
▁चिन्मात्रमेव	-11.8276
▁flowed	-11.8276
▁protector	-11.8277
▁प्यार	-11.8277
ोपवीत	-11.8277
योजयेत्	-11.8277
▁स्वप्रकाश	-11.8277
▁आदौ	-11.8277
▁निरुध्यते	-11.8278
▁पञ्चधा	-11.8279
▁jaanti	-11.828
▁discovered	-11.828
कामहत	-11.828
शक्त्या	-11.8282
▁जनिता	-11.8282
▁ह्यात्मा	-11.8282
▁नाववतु	-11.8284
वदेव	-11.8285
▁इनका	-11.8285
▁dekho	-11.8286
▁समारुह्य	-11.8286
▁personally	-11.8286
▁इयेन	-11.8286
Verily	-11.8287
she	-11.8287
ाधः	-11.8289
▁पूछने	-11.8291
कुमार	-11.8291
▁देखती	-11.8293
ुन्न	-11.8294
धारणा	-11.8295
▁entrepreneurs	-11.8295
▁त्रिपाद्विभूतिम	-11.8296
without	-11.8296
Hence	-11.8296
▁पलक	-11.8297
▁भूरि	-11.8297
▁cave	-11.8298
▁reclaim	-11.8298
▁परमहंसो	-11.8299
sacrificial	-11.83
▁चादर	-11.8301
ोऽहम्	-11.8303
््‍ा	-11.8303
▁साम्ब	-11.8303
▁नाड्यां	-11.8303
ाभिमान	-11.8304
▁regular	-11.8305
▁remembered	-11.8306
▁संतान	-11.8306
▁heated	-11.8307
▁fifteen	-11.8307
▁seventeen	-11.8307
हस्तो	-11.8308
▁achar	-11.8308
▁Durga	-11.8309
यानो	-11.831
▁दधान	-11.8311
▁conceived	-11.8313
His	-11.8313
▁तत्त्वे	-11.8314
ानन्त	-11.8315
टू	-11.8315
स्थित	-11.8316
▁क्षीयन्ते	-11.8317
▁ऋचो	-11.8318
▁guzar	-11.8319
▁सुख्य	-11.8319
नन्दी	-11.832
nir	-11.832
मोद	-11.8323
तुं	-11.8324
▁विष्णव	-11.8325
▁भवत्यात्मन	-11.8326
▁चेक	-11.8328
मण्डलम्	-11.8329
ख्यात	-11.8329
▁सचिदानन्द	-11.833
मैंने	-11.833
▁necessary	-11.8332
ादयो	-11.8332
शुद्धि	-11.8333
▁secrets	-11.8334
▁स्री	-11.8336
▁dancer	-11.8336
स्थानम्	-11.8338
▁शीक्षाध्याय	-11.8339
▁narratives	-11.8339
▁त्रिधा	-11.834
▁अनसूय	-11.8342
▁तदिति	-11.8343
▁चास्य	-11.8349
ade	-11.835
▁ट्रेन	-11.8351
धक	-11.8354
▁Sharma	-11.8356
▁इन्	-11.8357
ogi	-11.8357
भावे	-11.8358
वाँ	-11.8358
▁Dharma	-11.8359
स्तिष्ठ	-11.8361
ाऽस्य	-11.8362
▁sikhn	-11.8364
▁दात	-11.8364
▁क्षुब्ध	-11.8368
 1!'	-11.837
▁कृतः	-11.8371
hri	-11.8371
▁वने	-11.8374
षित	-11.8375
धत्ते	-11.8376
▁masters	-11.8377
▁सदस्य	-11.8378
▁fests	-11.8378
▁त्रिपुण्ड	-11.8378
▁usne	-11.8383
नद्	-11.8384
minded	-11.8384
▁पाव	-11.8385
श्रेति	-11.8386
नै	-11.8386
त्यागी	-11.8386
मम्	-11.8386
▁विभु	-11.8388
ोस्मि	-11.8389
▁adhur	-11.8389
▁ब्रह्मोपास	-11.8389
वद्ध	-11.8389
▁intention	-11.8391
▁garment	-11.8391
७४	-11.8392
▁यते	-11.8394
भार	-11.8394
▁seekha	-11.8395
लभ्यते	-11.84
▁Vedi	-11.84
▁कमण्डलु	-11.8401
▁धनंजय	-11.8402
कलेवर	-11.8403
âr	-11.8403
ज्वा	-11.8404
▁product	-11.8404
vî	-11.8407
द्वयम्	-11.8409
▁enjoyer	-11.8409
▁प्रज्ञ	-11.841
ोगी	-11.8411
रोग	-11.8411
▁wouldn	-11.8411
▁इत्येव	-11.8412
▁अवेत्	-11.8412
ेद्	-11.8413
▁तस्स	-11.8415
▁नैव	-11.8418
मेह	-11.8419
धिया	-11.842
मन्तरो	-11.842
ूतं	-11.8421
▁गरुड	-11.8422
▁stick	-11.8424
▁सुकृत	-11.8425
▁appeal	-11.8427
▁प‍द	-11.8428
ika	-11.843
ाधो	-11.8433
▁literal	-11.8434
▁successive	-11.8435
▁awe	-11.8435
▁मालिक	-11.8436
▁spreads	-11.8436
▁Yajnavalkya	-11.8437
▁breeze	-11.8437
▁completion	-11.8437
▁educate	-11.8437
▁prescribed	-11.8437
▁steal	-11.8437
▁curiosity	-11.8437
▁ग्रीष्म	-11.8437
▁solid	-11.8437
▁अद्वैत	-11.8437
▁countless	-11.8437
▁लायक	-11.8438
▁य॑	-11.8438
लय	-11.8438
कर्ता	-11.8439
▁heroes	-11.8439
▁constantly	-11.844
▁unless	-11.8441
▁टिकट	-11.8444
७६	-11.8447
 1.--	-11.8447
▁्र्म	-11.8449
▁पञ्चभि	-11.8449
▁निर्विषय	-11.845
▁reed	-11.8453
न्यासः	-11.8453
▁गाँ	-11.8455
▁Upasads	-11.8455
▁Literature	-11.8455
▁bag	-11.8457
ेश्च	-11.8459
▁मानसिक	-11.846
त्मेति	-11.8464
▁नमस्कार	-11.8464
▁टूटा	-11.8465
utting	-11.8466
▁arm	-11.8467
▁Visvakarman	-11.8467
ेमे	-11.8469
▁hind	-11.8471
ेतत्	-11.8473
▁spreading	-11.8473
ृते	-11.8475
▁शेर	-11.8476
स्यास्य	-11.8478
▁पुण्यपाप	-11.8479
free	-11.8479
६५	-11.848
नन्दन	-11.8482
bi	-11.8482
▁अनन्य	-11.8483
▁वह्वि	-11.8487
ृश	-11.8488
▁अद्र	-11.8489
▁मात	-11.8491
▁यज्ञः	-11.8492
▁dadi	-11.8494
घीते	-11.8495
▁इदानीम	-11.8496
ास्तीति	-11.8498
विश्व	-11.8499
▁कतेव्य	-11.85
▁पित्त	-11.85
ोक्ति	-11.85
▁दक्षिणत	-11.8501
▁Whilst	-11.8502
▁Ga	-11.8503
▁maan	-11.8503
दस्य	-11.8504
▁आह्य	-11.8505
▁व्यर्थ	-11.8505
निभ	-11.8505
देशे	-11.8505
▁विराज	-11.8505
स्ततः	-11.8507
▁पश	-11.8507
▁समिध	-11.8508
▁वरिष्ठ	-11.851
ेनेति	-11.851
4:1	-11.851
▁भुव	-11.8511
per	-11.8513
▁मन्मथ	-11.8514
▁निर्माण	-11.8516
▁अनी	-11.8516
नेमि	-11.8516
▁स्थाप्य	-11.852
मन्तः	-11.852
▁पक्षी	-11.8522
▁साध्य	-11.8526
दूत	-11.8527
atory	-11.8528
▁अवे	-11.8528
▁Friends	-11.8531
ton	-11.8532
▁िवा	-11.8533
ात्स	-11.8534
▁प्राचीन	-11.8536
▁घि	-11.8537
त्राः	-11.8539
धन	-11.8544
▁घोडश	-11.8544
▁उतरते	-11.8546
करो	-11.8548
▁भवितव्य	-11.8549
विहिता	-11.855
▁Agnîdh	-11.8551
ेरा	-11.8551
▁सृत्यु	-11.8551
▁priesthood	-11.8551
▁द्र	-11.8551
▁denial	-11.8551
▁awaken	-11.8552
▁ब्राह्म	-11.8552
मद	-11.8553
▁Sâ	-11.8555
mazak	-11.8555
्‍वत	-11.8556
भूमिः	-11.8558
▁परतर	-11.8559
ठा	-11.8559
ाभावात्	-11.8559
apas	-11.856
दत्ते	-11.8562
पग	-11.8563
न्मनः	-11.8564
▁gadget	-11.8564
▁vehicle	-11.8565
▁दिवाकर	-11.8565
▁shot	-11.8566
▁shower	-11.8567
▁चिट	-11.8568
▁कोपीन	-11.8568
▁गात्र	-11.8571
िणी	-11.8571
निष्ट	-11.8573
kti	-11.8573
▁सिद्धय	-11.8574
▁13)	-11.8575
कथा	-11.8576
र्भवति	-11.8576
कान्त	-11.8577
न्यस्त	-11.8578
▁सन्मात्र	-11.858
▁दर्शय	-11.8586
▁वेदि	-11.8586
▁eastern	-11.8587
िये	-11.8587
▁vai	-11.8589
▁scent	-11.859
सक्त	-11.8594
▁तरीक	-11.8594
▁khaya	-11.8594
▁प्रकृत	-11.8595
▁क्रमेण	-11.8596
प्येत	-11.8596
▁पन्थान	-11.8597
▁trips	-11.8597
ांरो	-11.8597
▁covering	-11.8598
▁उभय	-11.86
▁आज्ञा	-11.8601
▁ours	-11.8602
भूता	-11.8604
▁uniform	-11.8606
▁Sândilya	-11.8606
▁cafe	-11.8607
▁smooth	-11.8607
▁भिजवा	-11.8609
▁पांडे	-11.8609
▁advice	-11.8609
▁eternity	-11.8609
▁mysteries	-11.8609
Chetan	-11.8609
▁Temple	-11.8609
▁zyaada	-11.8609
▁reabsorption	-11.8609
▁mortar	-11.8609
▁sangeet	-11.8609
▁निःशब्द	-11.861
▁अनाहत	-11.861
दस्	-11.861
▁बांह	-11.861
▁लड़ाई	-11.861
▁तुमुन्	-11.861
▁जेवर	-11.861
▁महर्षि	-11.861
▁Woah	-11.8611
▁पुण्डरीक	-11.8611
▁eagerly	-11.8611
▁Lata	-11.8611
▁फाल	-11.8612
▁khushiyaan	-11.8612
▁peeche	-11.8612
▁yatra	-11.8612
727	-11.8612
▁द्रष्टव्य	-11.8613
▁About	-11.8613
▁भवव्त	-11.8613
▁Suno	-11.8613
▁एि	-11.8613
▁invisible	-11.8613
▁saamne	-11.8614
▁निगुण	-11.8614
तद्	-11.8615
▁पहुँच	-11.8616
येथा	-11.8616
ाते	-11.8616
▁चैन	-11.8617
▁removed	-11.8617
▁appeared	-11.8618
▁मैम	-11.8619
▁अस्त	-11.8619
साधनम्	-11.8619
▁Mars	-11.862
arur	-11.862
▁यस्मात्	-11.8624
▁30.	-11.8624
▁खल्विद	-11.8625
▁iska	-11.8625
चेतन	-11.8626
▁धार्य	-11.8627
ुख	-11.8628
▁Anushtubh	-11.8628
▁तरया	-11.863
▁bajaye	-11.8632
यस्तं	-11.8633
मासन	-11.8634
योग्य	-11.8634
▁aasan	-11.8635
▁सूयो	-11.8636
▁peculiar	-11.864
स्तेजस	-11.864
▁११६	-11.864
▁चिदानन्द	-11.8641
▁प्रेत	-11.8642
[...]
